{
  "version": "1.0",
  "truncation": null,
  "padding": null,
  "added_tokens": [
    {
      "id": 0,
      "content": "<pad>",
      "single_word": false,
      "lstrip": false,
      "rstrip": false,
      "normalized": false,
      "special": true
    },
    {
      "id": 1,
      "content": "<unk>",
      "single_word": false,
      "lstrip": false,
      "rstrip": false,
      "normalized": false,
      "special": true
    },
    {
      "id": 2,
      "content": "<mask>",
      "single_word": false,
      "lstrip": false,
      "rstrip": false,
      "normalized": false,
      "special": true
    }
  ],
  "normalizer": null,
  "pre_tokenizer": null,
  "post_processor": null,
  "decoder": {
    "type": "BPEDecoder",
    "suffix": "</w>"
  },
  "model": {
    "type": "BPE",
    "dropout": null,
    "unk_token": "<unk>",
    "continuing_subword_prefix": null,
    "end_of_word_suffix": null,
    "fuse_unk": false,
    "byte_fallback": false,
    "ignore_merges": false,
    "vocab": {
      "<pad>": 0,
      "<unk>": 1,
      "<mask>": 2,
      " ": 3,
      "!": 4,
      "\"": 5,
      "#": 6,
      "$": 7,
      "&": 8,
      "'": 9,
      "(": 10,
      ")": 11,
      "*": 12,
      ",": 13,
      "-": 14,
      ".": 15,
      "/": 16,
      "0": 17,
      "1": 18,
      "2": 19,
      "3": 20,
      "4": 21,
      "5": 22,
      "6": 23,
      "7": 24,
      "8": 25,
      "9": 26,
      ":": 27,
      ";": 28,
      "=": 29,
      "?": 30,
      "A": 31,
      "B": 32,
      "C": 33,
      "D": 34,
      "E": 35,
      "F": 36,
      "G": 37,
      "H": 38,
      "I": 39,
      "J": 40,
      "K": 41,
      "L": 42,
      "M": 43,
      "N": 44,
      "O": 45,
      "P": 46,
      "Q": 47,
      "R": 48,
      "S": 49,
      "T": 50,
      "U": 51,
      "V": 52,
      "W": 53,
      "X": 54,
      "Y": 55,
      "Z": 56,
      "\\": 57,
      "_": 58,
      "a": 59,
      "b": 60,
      "c": 61,
      "d": 62,
      "e": 63,
      "f": 64,
      "g": 65,
      "h": 66,
      "i": 67,
      "j": 68,
      "k": 69,
      "l": 70,
      "m": 71,
      "n": 72,
      "o": 73,
      "p": 74,
      "q": 75,
      "r": 76,
      "s": 77,
      "t": 78,
      "u": 79,
      "v": 80,
      "w": 81,
      "x": 82,
      "y": 83,
      "z": 84,
      "e ": 85,
      "s ": 86,
      "in": 87,
      "er": 88,
      "d ": 89,
      "t ": 90,
      "th": 91,
      "an": 92,
      "on": 93,
      "or": 94,
      "y ": 95,
      "ar": 96,
      "en": 97,
      "the ": 98,
      "o ": 99,
      "al": 100,
      "ed ": 101,
      ", ": 102,
      "ing": 103,
      "re": 104,
      "a ": 105,
      "st": 106,
      "on ": 107,
      "of": 108,
      "er ": 109,
      "ing ": 110,
      "at": 111,
      "to ": 112,
      "ic": 113,
      "ou": 114,
      "in ": 115,
      "it": 116,
      "es ": 117,
      "il": 118,
      "of ": 119,
      "om": 120,
      "es": 121,
      "el": 122,
      "an ": 123,
      "and ": 124,
      "ac": 125,
      "ro": 126,
      "for": 127,
      "ec": 128,
      "da": 129,
      "as": 130,
      "ur": 131,
      "is": 132,
      "as ": 133,
      ". ": 134,
      "al ": 135,
      "at ": 136,
      "ol": 137,
      "am": 138,
      "ch": 139,
      "ir": 140,
      "ig": 141,
      "ion ": 142,
      "ter": 143,
      "l ": 144,
      "is ": 145,
      "le": 146,
      "for ": 147,
      "- ": 148,
      "ad": 149,
      "th ": 150,
      "un": 151,
      "#3": 152,
      "us": 153,
      "ow": 154,
      "k ": 155,
      "ri": 156,
      "ag": 157,
      "9;": 158,
      "#39;": 159,
      "p ": 160,
      "Th": 161,
      "id": 162,
      "ion": 163,
      "et": 164,
      "day ": 165,
      "ra": 166,
      "pl": 167,
      "ent ": 168,
      ") ": 169,
      "ear": 170,
      "h ": 171,
      "ot": 172,
      "en ": 173,
      "em": 174,
      "ve ": 175,
      "ers ": 176,
      "im": 177,
      "os": 178,
      "n ": 179,
      "ed": 180,
      "com": 181,
      "ent": 182,
      "qu": 183,
      "ov": 184,
      "ew": 185,
      "sa": 186,
      "#39;s ": 187,
      "wi": 188,
      "it ": 189,
      "op": 190,
      "ex": 191,
      "In": 192,
      "res": 193,
      "est": 194,
      "that ": 195,
      "ak": 196,
      "t;": 197,
      "igh": 198,
      "ul": 199,
      "ap": 200,
      "oun": 201,
      "ut": 202,
      "id ": 203,
      "sh": 204,
      "The ": 205,
      "its ": 206,
      "Re": 207,
      "ly ": 208,
      "with ": 209,
      " p": 210,
      "con": 211,
      "wh": 212,
      "ill": 213,
      "et ": 214,
      "day": 215,
      "ab": 216,
      "oc": 217,
      "ts ": 218,
      "ter ": 219,
      "le ": 220,
      "'s ": 221,
      "de": 222,
      "ce ": 223,
      "St": 224,
      "in the ": 225,
      "ha": 226,
      "fr": 227,
      "su": 228,
      "00": 229,
      "our": 230,
      "pro": 231,
      "uter": 232,
      "s, ": 233,
      "om ": 234,
      "of the ": 235,
      "ist": 236,
      "or ": 237,
      "by ": 238,
      "ill ": 239,
      "por": 240,
      "A ": 241,
      "oo": 242,
      "ew ": 243,
      "be": 244,
      "S ": 245,
      "has ": 246,
      "tr": 247,
      "ld ": 248,
      "ation": 249,
      "se": 250,
      "iv": 251,
      "the": 252,
      "ic ": 253,
      "f ": 254,
      "Ch": 255,
      "s.": 256,
      ": ": 257,
      "est ": 258,
      "are ": 259,
      "AP": 260,
      "wor": 261,
      "comp": 262,
      "Reuter": 263,
      "st ": 264,
      "ks ": 265,
      "ay": 266,
      "from ": 267,
      "said ": 268,
      "ay ": 269,
      "um": 270,
      "ate ": 271,
      "sp": 272,
      "and": 273,
      "af": 274,
      "i ": 275,
      "ation ": 276,
      "ain": 277,
      "cl": 278,
      "ies ": 279,
      "we": 280,
      "bu": 281,
      "out ": 282,
      "ect": 283,
      " - ": 284,
      "all": 285,
      "ast ": 286,
      "ar ": 287,
      "ir ": 288,
      "ch ": 289,
      "ia ": 290,
      "str": 291,
      "his ": 292,
      "ed to ": 293,
      "..": 294,
      "e, ": 295,
      " (": 296,
      "ity ": 297,
      "fir": 298,
      "uc": 299,
      "ob": 300,
      "will ": 301,
      "tw": 302,
      "year": 303,
      "s) ": 304,
      "was ": 305,
      "ian ": 306,
      "pr": 307,
      "gt;": 308,
      "&gt;": 309,
      "lt;": 310,
      "&lt;": 311,
      "ive ": 312,
      "if": 313,
      " m": 314,
      "ev": 315,
      "Reuters) ": 316,
      "end": 317,
      "ud": 318,
      "off": 319,
      "all ": 320,
      "after ": 321,
      "to": 322,
      "be ": 323,
      "el ": 324,
      "arg": 325,
      "ore ": 326,
      "up ": 327,
      "s to ": 328,
      "ot ": 329,
      "ight ": 330,
      "quot": 331,
      "over ": 332,
      "rec": 333,
      "ong": 334,
      "la": 335,
      "one ": 336,
      "ad ": 337,
      "US ": 338,
      "ment ": 339,
      "ice ": 340,
      "lin": 341,
      "ould ": 342,
      "il ": 343,
      "over": 344,
      "\\$": 345,
      "ere ": 346,
      "have ": 347,
      "pe": 348,
      "sec": 349,
      ", the ": 350,
      "bl": 351,
      "0 ": 352,
      "e.": 353,
      "ow ": 354,
      "art": 355,
      "sof": 356,
      "ost": 357,
      "av": 358,
      "m ": 359,
      "ep": 360,
      "ds ": 361,
      "gr": 362,
      "ann": 363,
      "ack ": 364,
      "any ": 365,
      "nes": 366,
      "new ": 367,
      "ed a ": 368,
      "ug": 369,
      "he": 370,
      "day.": 371,
      "their ": 372,
      "fin": 373,
      "Un": 374,
      "quot;": 375,
      "ial ": 376,
      "ing the ": 377,
      "amp": 378,
      "Mon": 379,
      "ther ": 380,
      "ace ": 381,
      "Ira": 382,
      "Iraq": 383,
      "x ": 384,
      "ass": 385,
      "li": 386,
      "erv": 387,
      "og": 388,
      "up": 389,
      "ess ": 390,
      "ing to ": 391,
      "200": 392,
      "Mic": 393,
      "att": 394,
      "tern": 395,
      "ame ": 396,
      "ang": 397,
      "Reuters) - ": 398,
      "ard ": 399,
      "sc": 400,
      "anc": 401,
      "ON": 402,
      "e of ": 403,
      "for the ": 404,
      "mer": 405,
      "row": 406,
      "U.": 407,
      "AP) ": 408,
      "ick": 409,
      "ost ": 410,
      "am ": 411,
      "wee": 412,
      "resid": 413,
      "first ": 414,
      "ack": 415,
      "ed the ": 416,
      "ions ": 417,
      "per": 418,
      "oll": 419,
      "e-": 420,
      "but ": 421,
      "mar": 422,
      "tim": 423,
      "als ": 424,
      "di": 425,
      "-- ": 426,
      "dow": 427,
      "he ": 428,
      "oug": 429,
      "ant": 430,
      "illion ": 431,
      "ph": 432,
      "ues": 433,
      "thre": 434,
      "act": 435,
      "urs": 436,
      "day, ": 437,
      "AP - ": 438,
      "AP) AP - ": 439,
      "ome ": 440,
      "sur": 441,
      "mak": 442,
      "on the ": 443,
      "ver": 444,
      "Sh": 445,
      "Wed": 446,
      "Wednes": 447,
      "in a ": 448,
      "inv": 449,
      "ip": 450,
      "two ": 451,
      "U.S": 452,
      "ue ": 453,
      "ell": 454,
      "Tues": 455,
      "dis": 456,
      "port": 457,
      "ant ": 458,
      "ric": 459,
      "ell ": 460,
      "rit": 461,
      "ef": 462,
      "Thurs": 463,
      "ans ": 464,
      "acc": 465,
      "An": 466,
      "ile ": 467,
      "ester": 468,
      "ke": 469,
      "eb": 470,
      "ain ": 471,
      "old ": 472,
      "se ": 473,
      "age ": 474,
      "ret": 475,
      "iz": 476,
      "more ": 477,
      "Inc": 478,
      "ed by ": 479,
      "to the ": 480,
      " S": 481,
      "hel": 482,
      "ing a ": 483,
      "s of ": 484,
      "ast": 485,
      "od": 486,
      "Fri": 487,
      "te": 488,
      "ord": 489,
      "this ": 490,
      "New ": 491,
      "es, ": 492,
      "ance ": 493,
      "U.S. ": 494,
      "ess": 495,
      "again": 496,
      "y, ": 497,
      "ut ": 498,
      "exp": 499,
      "  ": 500,
      "mon": 501,
      "...": 502,
      "form": 503,
      " (Reuters) - ": 504,
      "duc": 505,
      "ail": 506,
      "ates ": 507,
      "Sun": 508,
      "ors ": 509,
      "fl": 510,
      "(AP) AP - ": 511,
      "ish ": 512,
      "OR": 513,
      "ound ": 514,
      "against ": 515,
      "Micro": 516,
      "Mar": 517,
      "ple ": 518,
      "&lt;/": 519,
      "min": 520,
      "sl": 521,
      "ary ": 522,
      "Com": 523,
      " b": 524,
      "than ": 525,
      "ational ": 526,
      "ustr": 527,
      "ight": 528,
      "Cor": 529,
      "ite ": 530,
      "emb": 531,
      "s and ": 532,
      "ory ": 533,
      "quar": 534,
      "cont": 535,
      "pos": 536,
      "last ": 537,
      "offic": 538,
      "not ": 539,
      "tak": 540,
      "at the ": 541,
      "ide ": 542,
      "ence ": 543,
      "ign": 544,
      "serv": 545,
      "yester": 546,
      "es.": 547,
      "overn": 548,
      "ade ": 549,
      "Microsof": 550,
      "about ": 551,
      "end ": 552,
      "ited ": 553,
      "ne": 554,
      "ict": 555,
      "man ": 556,
      "ke ": 557,
      "lead": 558,
      "AN": 559,
      "iss": 560,
      "ash": 561,
      "co": 562,
      "ib": 563,
      "enc": 564,
      "who ": 565,
      "par": 566,
      "und": 567,
      "gl": 568,
      "ations ": 569,
      "ge ": 570,
      "were ": 571,
      "ull": 572,
      "Intern": 573,
      "our ": 574,
      "rel": 575,
      "En": 576,
      "Fr": 577,
      "NE": 578,
      "y.": 579,
      "ets ": 580,
      "resident ": 581,
      "ounc": 582,
      "riv": 583,
      "oin": 584,
      "invest": 585,
      "erc": 586,
      "ally ": 587,
      "bo": 588,
      "company ": 589,
      "atur": 590,
      "yst": 591,
      "ech": 592,
      "other ": 593,
      "they ": 594,
      "been ": 595,
      "ust ": 596,
      "ock": 597,
      "Amer": 598,
      "Al": 599,
      "had ": 600,
      "Wor": 601,
      "uro": 602,
      "er, ": 603,
      "ust": 604,
      "Qu": 605,
      "ong ": 606,
      "Le": 607,
      "Americ": 608,
      "ase ": 609,
      "s - ": 610,
      "Microsoft ": 611,
      "war": 612,
      "ilit": 613,
      "ys ": 614,
      "C ": 615,
      "#39; ": 616,
      "port ": 617,
      " quot;": 618,
      "Sp": 619,
      "Ex": 620,
      "b&gt;": 621,
      "rem": 622,
      "play": 623,
      ". The ": 624,
      "ed in ": 625,
      "cre": 626,
      "Ar": 627,
      "coun": 628,
      "ine ": 629,
      "ich ": 630,
      "govern": 631,
      "Ind": 632,
      "ings ": 633,
      "out": 634,
      "Monday ": 635,
      "app": 636,
      "ach": 637,
      "dec": 638,
      "Chin": 639,
      "ents ": 640,
      "vi": 641,
      "AF": 642,
      "man": 643,
      "Euro": 644,
      "ated ": 645,
      "eral ": 646,
      "work": 647,
      "Corp": 648,
      "line ": 649,
      " P": 650,
      "mark": 651,
      "kill": 652,
      "ens": 653,
      "Wednesday ": 654,
      "ind": 655,
      "Tuesday ": 656,
      "Bus": 657,
      "ip ": 658,
      "ning ": 659,
      "ris": 660,
      "Inc. ": 661,
      "seas": 662,
      "Con": 663,
      "tal": 664,
      "United ": 665,
      "2 ": 666,
      "prov": 667,
      "Thursday ": 668,
      "oup ": 669,
      "off ": 670,
      "back ": 671,
      "would ": 672,
      "olog": 673,
      "AS": 674,
      "ough ": 675,
      "able ": 676,
      "IN": 677,
      "For": 678,
      "secon": 679,
      "ting ": 680,
      "ank": 681,
      "year ": 682,
      "im ": 683,
      "s in ": 684,
      "urity ": 685,
      "AFP": 686,
      "ach ": 687,
      "which ": 688,
      "could ": 689,
      "es to ": 690,
      "4 ": 691,
      "uss": 692,
      "def": 693,
      "1 ": 694,
      "into ": 695,
      "ry ": 696,
      "reg": 697,
      "run": 698,
      "W ": 699,
      "pol": 700,
      "time ": 701,
      "ement ": 702,
      "ure ": 703,
      "ical ": 704,
      "win": 705,
      "echn": 706,
      "des": 707,
      "ww": 708,
      "ve": 709,
      "ther": 710,
      "Af": 711,
      "of a ": 712,
      "miss": 713,
      "ie": 714,
      "w ": 715,
      "ely ": 716,
      "ub": 717,
      "announc": 718,
      "Friday ": 719,
      "new": 720,
      "ext ": 721,
      "air": 722,
      "high": 723,
      "eng": 724,
      "ym": 725,
      "Brit": 726,
      "5 ": 727,
      "Reuters - ": 728,
      "Reuters) Reuters - ": 729,
      "AT": 730,
      "fo": 731,
      "M ": 732,
      "Satur": 733,
      "ma": 734,
      "ased ": 735,
      "Co": 736,
      "Min": 737,
      "ition ": 738,
      "sal": 739,
      "way ": 740,
      "ose ": 741,
      "Wi": 742,
      "tri": 743,
      "leg": 744,
      "ard": 745,
      "ign ": 746,
      "ff": 747,
      "yesterday ": 748,
      "thir": 749,
      "when ": 750,
      "ports ": 751,
      "ystem": 752,
      "omb": 753,
      " million ": 754,
      " perc": 755,
      "dr": 756,
      "three ": 757,
      "compan": 758,
      "NEW ": 759,
      "As": 760,
      "ating ": 761,
      "s. ": 762,
      "down ": 763,
      "President ": 764,
      "ook ": 765,
      "Is": 766,
      "government ": 767,
      "a b": 768,
      "shar": 769,
      "Jap": 770,
      "agre": 771,
      "tware ": 772,
      "ist ": 773,
      "ants ": 774,
      "top ": 775,
      "dev": 776,
      "cr": 777,
      "ople ": 778,
      "O ": 779,
      "me": 780,
      "most ": 781,
      "next ": 782,
      "hol": 783,
      "tt": 784,
      "cap": 785,
      ", a ": 786,
      "Iraq ": 787,
      "earch ": 788,
      "Or": 789,
      "ous ": 790,
      "elect": 791,
      "ton ": 792,
      "ORK": 793,
      "(Reuters) Reuters - ": 794,
      "larg": 795,
      "and the ": 796,
      "YORK": 797,
      "echnolog": 798,
      "NEW YORK": 799,
      "report": 800,
      "oy": 801,
      "ices ": 802,
      "N ": 803,
      "; ": 804,
      "game ": 805,
      "US": 806,
      "Gr": 807,
      "med": 808,
      "ubl": 809,
      "pre": 810,
      "sup": 811,
      "son ": 812,
      "az": 813,
      "car": 814,
      "bus": 815,
      "Russ": 816,
      "ound": 817,
      "with the ": 818,
      "br": 819,
      "expect": 820,
      "for a ": 821,
      "ood ": 822,
      "vict": 823,
      "ese ": 824,
      "ister ": 825,
      "bec": 826,
      "Pr": 827,
      "ustral": 828,
      "Austral": 829,
      "=\"": 830,
      "tion ": 831,
      "says ": 832,
      "said on ": 833,
      "from the ": 834,
      "Res": 835,
      "pres": 836,
      "Corp. ": 837,
      "Isra": 838,
      "plan": 839,
      "week": 840,
      "World ": 841,
      "said": 842,
      "erg": 843,
      "Pl": 844,
      "rim": 845,
      "ure": 846,
      "world ": 847,
      "rele": 848,
      "onom": 849,
      "Jo": 850,
      " B": 851,
      "set ": 852,
      "ed on ": 853,
      "milit": 854,
      "ie ": 855,
      "us ": 856,
      "Nor": 857,
      "with a ": 858,
      "ul ": 859,
      ") - ": 860,
      "ord ": 861,
      "Europe": 862,
      "fi": 863,
      "Wh": 864,
      "RE": 865,
      "ft ": 866,
      "ect ": 867,
      "bet": 868,
      "oper": 869,
      "early ": 870,
      "week ": 871,
      "Pal": 872,
      "a, ": 873,
      "ok": 874,
      "Quot": 875,
      "second ": 876,
      " percent ": 877,
      "3 ": 878,
      "10": 879,
      "inter": 880,
      "ocks ": 881,
      "ays ": 882,
      "ish": 883,
      "offici": 884,
      "' ": 885,
      "ld": 886,
      "own ": 887,
      "int": 888,
      "quot; ": 889,
      " #39;": 890,
      "prof": 891,
      "Can": 892,
      "can ": 893,
      "ers": 894,
      "head ": 895,
      "mer ": 896,
      "Op": 897,
      "tur": 898,
      "T ": 899,
      "On": 900,
      "aus": 901,
      "L ": 902,
      "ise ": 903,
      "software ": 904,
      "ans": 905,
      ",00": 906,
      "aim": 907,
      "es of ": 908,
      "busin": 909,
      "Ph": 910,
      "es and ": 911,
      "grow": 912,
      "Internet ": 913,
      "los": 914,
      "d-": 915,
      "publ": 916,
      "over the ": 917,
      "dem": 918,
      "inu": 919,
      "ics ": 920,
      "as the ": 921,
      "China ": 922,
      "ock ": 923,
      "Bl": 924,
      "sol": 925,
      "targ": 926,
      "may ": 927,
      "quarter": 928,
      "econom": 929,
      "security ": 930,
      "go": 931,
      "Se": 932,
      "comm": 933,
      "Ap": 934,
      "big": 935,
      "In ": 936,
      "ying ": 937,
      "ens ": 938,
      "ision ": 939,
      "ough": 940,
      "Pro": 941,
      "um ": 942,
      "ital ": 943,
      "today ": 944,
      "Ol": 945,
      "ower ": 946,
      "ct": 947,
      "ief ": 948,
      "es in ": 949,
      "art ": 950,
      "cer": 951,
      "os ": 952,
      "19": 953,
      "D ": 954,
      "ear ": 955,
      "ank ": 956,
      "Win": 957,
      "E ": 958,
      "European ": 959,
      "ship ": 960,
      "ymp": 961,
      "Bush ": 962,
      "ove ": 963,
      "Col": 964,
      "uter ": 965,
      "bel": 966,
      "system": 967,
      "ER": 968,
      "produc": 969,
      " pro": 970,
      "Sou": 971,
      "ext": 972,
      "dat": 973,
      "fer": 974,
      "Sec": 975,
      "chang": 976,
      "team ": 977,
      "ourt ": 978,
      "with": 979,
      "win ": 980,
      "Net": 981,
      "ember ": 982,
      "ett": 983,
      "arm": 984,
      "fore ": 985,
      "laun": 986,
      "Joh": 987,
      "some ": 988,
      "American ": 989,
      "quarter ": 990,
      "Goo": 991,
      "New": 992,
      "gam": 993,
      "part": 994,
      "ING": 995,
      "Pe": 996,
      "more than ": 997,
      "aw": 998,
      "earch": 999,
      "umb": 1000,
      "Olymp": 1001,
      "ince ": 1002,
      "y to ": 1003,
      "ment": 1004,
      "thr": 1005,
      "countr": 1006,
      "ort": 1007,
      "clud": 1008,
      "\" ": 1009,
      "op ": 1010,
      "estin": 1011,
      "ept": 1012,
      "sid": 1013,
      "ous": 1014,
      "\\$1": 1015,
      "ecut": 1016,
      "De": 1017,
      "Fl": 1018,
      "ists ": 1019,
      "-b": 1020,
      "act ": 1021,
      "Tr": 1022,
      "four": 1023,
      "oil": 1024,
      "rime ": 1025,
      "igh ": 1026,
      "officials ": 1027,
      "victory ": 1028,
      " pric": 1029,
      "er of ": 1030,
      "technolog": 1031,
      "atch": 1032,
      "itt": 1033,
      "ped ": 1034,
      "sch": 1035,
      "so ": 1036,
      "Nov": 1037,
      "them": 1038,
      "charg": 1039,
      "IB": 1040,
      "I ": 1041,
      "ep ": 1042,
      "P ": 1043,
      "deal ": 1044,
      "ague ": 1045,
      "&lt;/b&gt;": 1046,
      "said.": 1047,
      "ool": 1048,
      "call": 1049,
      "Ir": 1050,
      "Sunday ": 1051,
      "Shar": 1052,
      "sign": 1053,
      "tra": 1054,
      "gi": 1055,
      "to a ": 1056,
      "Gre": 1057,
      "record ": 1058,
      "usp": 1059,
      "fil": 1060,
      "lat": 1061,
      "Yor": 1062,
      "of its ": 1063,
      "largest ": 1064,
      "Canad": 1065,
      "beg": 1066,
      "tel": 1067,
      "AR": 1068,
      "ey ": 1069,
      "that the ": 1070,
      "ing, ": 1071,
      "eg": 1072,
      "gle ": 1073,
      "British ": 1074,
      "fre": 1075,
      "ake ": 1076,
      "ederal ": 1077,
      "No": 1078,
      "Web": 1079,
      "you": 1080,
      "job": 1081,
      "before ": 1082,
      "der ": 1083,
      "ook": 1084,
      "ed for ": 1085,
      "get ": 1086,
      "&lt;b&gt;": 1087,
      "season ": 1088,
      "do": 1089,
      "...&lt;/b&gt;": 1090,
      "&lt;b&gt;...&lt;/b&gt;": 1091,
      "lead ": 1092,
      "Minister ": 1093,
      "forc": 1094,
      "ns ": 1095,
      "\"&gt;": 1096,
      "#39;t ": 1097,
      "Cl": 1098,
      "New Yor": 1099,
      "Air": 1100,
      "Cup ": 1101,
      "El": 1102,
      "AL": 1103,
      "Sof": 1104,
      "law": 1105,
      "United St": 1106,
      "TON": 1107,
      "just ": 1108,
      "Palestin": 1109,
      "no ": 1110,
      "manag": 1111,
      "ball ": 1112,
      "ath": 1113,
      "cent": 1114,
      "stor": 1115,
      "hal": 1116,
      "ide": 1117,
      "has been ": 1118,
      "former ": 1119,
      "lif": 1120,
      "6 ": 1121,
      "io ": 1122,
      "includ": 1123,
      "Israel": 1124,
      "month": 1125,
      "third ": 1126,
      "z ": 1127,
      "ven": 1128,
      "group ": 1129,
      "oil ": 1130,
      "jur": 1131,
      "ording to ": 1132,
      ", but ": 1133,
      ", and ": 1134,
      "gen": 1135,
      "announced ": 1136,
      "vers": 1137,
      "jor ": 1138,
      "del": 1139,
      "market ": 1140,
      "ore": 1141,
      "ople": 1142,
      "gre": 1143,
      "Br": 1144,
      "show": 1145,
      "icker": 1146,
      "devel": 1147,
      "post": 1148,
      "ash ": 1149,
      "bro": 1150,
      "dur": 1151,
      "sm": 1152,
      "ave ": 1153,
      "cc": 1154,
      "So": 1155,
      "fe": 1156,
      "Comp": 1157,
      "si": 1158,
      "tro": 1159,
      "al-": 1160,
      "work ": 1161,
      "Ger": 1162,
      "net": 1163,
      "least ": 1164,
      "obile ": 1165,
      ",000 ": 1166,
      "ween ": 1167,
      "thern ": 1168,
      "incre": 1169,
      "take ": 1170,
      "ential ": 1171,
      "bomb": 1172,
      "open": 1173,
      "ah": 1174,
      "ony ": 1175,
      "It ": 1176,
      "Mus": 1177,
      "ities ": 1178,
      "trad": 1179,
      "ner ": 1180,
      "read": 1181,
      "ient": 1182,
      "ser": 1183,
      "execut": 1184,
      "lear ": 1185,
      "Google ": 1186,
      "hom": 1187,
      "stri": 1188,
      "now ": 1189,
      "Car": 1190,
      "hop": 1191,
      "acks ": 1192,
      "rat": 1193,
      "target": 1194,
      "stock": 1195,
      " billion ": 1196,
      "s on ": 1197,
      "fur": 1198,
      "Iraqi ": 1199,
      "au": 1200,
      "66": 1201,
      "key ": 1202,
      "home ": 1203,
      "ual ": 1204,
      "let": 1205,
      "Red ": 1206,
      "if ": 1207,
      "will be ": 1208,
      "2004": 1209,
      "atch ": 1210,
      "//": 1211,
      "ned ": 1212,
      "many ": 1213,
      "w.": 1214,
      "p:": 1215,
      "clos": 1216,
      "htt": 1217,
      "p://": 1218,
      "http://": 1219,
      "ashing": 1220,
      "made ": 1221,
      "night ": 1222,
      "vis": 1223,
      "er.": 1224,
      "15": 1225,
      "ton": 1226,
      "Saturday ": 1227,
      "ty ": 1228,
      "make ": 1229,
      "or.": 1230,
      "ered ": 1231,
      "Ad": 1232,
      "Be": 1233,
      "e. ": 1234,
      "ire ": 1235,
      "doll": 1236,
      "ick ": 1237,
      "A H": 1238,
      "6-": 1239,
      "between ": 1240,
      "people ": 1241,
      "Cal": 1242,
      "host": 1243,
      "s the ": 1244,
      "sub": 1245,
      "as a ": 1246,
      "fac": 1247,
      "susp": 1248,
      "champ": 1249,
      "AM": 1250,
      "iam": 1251,
      "hand": 1252,
      "Sc": 1253,
      "gu": 1254,
      "Prof": 1255,
      "ed.": 1256,
      "according to ": 1257,
      "www.": 1258,
      "NEW YORK (Reuters) - ": 1259,
      "Ara": 1260,
      "ak ": 1261,
      "quick": 1262,
      "hit ": 1263,
      "rul": 1264,
      "final ": 1265,
      "ering ": 1266,
      "istan ": 1267,
      "mov": 1268,
      "years ": 1269,
      "on a ": 1270,
      "ency ": 1271,
      "=\"http://": 1272,
      "sen": 1273,
      "Engl": 1274,
      "season": 1275,
      "mus": 1276,
      "ives ": 1277,
      "her ": 1278,
      "through ": 1279,
      "ending ": 1280,
      "intern": 1281,
      "terr": 1282,
      "les ": 1283,
      "ers, ": 1284,
      "uters.": 1285,
      "Ser": 1286,
      "full": 1287,
      "? ": 1288,
      "help ": 1289,
      "retur": 1290,
      "chief ": 1291,
      "nings ": 1292,
      "&lt;b&gt;...&lt;/b&gt; ": 1293,
      "ters ": 1294,
      "dra": 1295,
      " pe": 1296,
      "gh": 1297,
      "New York ": 1298,
      "another ": 1299,
      "ion.": 1300,
      "ding ": 1301,
      "sour": 1302,
      "err": 1303,
      "REF": 1304,
      "soc": 1305,
      "Kore": 1306,
      "enn": 1307,
      "head": 1308,
      "expl": 1309,
      "With ": 1310,
      "a.": 1311,
      "=\"http://www.": 1312,
      "held ": 1313,
      " to ": 1314,
      "ticker": 1315,
      "talks ": 1316,
      "reuters.": 1317,
      "?ticker": 1318,
      "A&gt;": 1319,
      "&lt;A H": 1320,
      "&lt;/A&gt;": 1321,
      "REF=\"http://www.": 1322,
      "?ticker=": 1323,
      "&lt;A HREF=\"http://www.": 1324,
      "nam": 1325,
      "rup": 1326,
      "i-": 1327,
      "Up": 1328,
      " prices ": 1329,
      "South ": 1330,
      "under ": 1331,
      "killed ": 1332,
      "ing.": 1333,
      "Pak": 1334,
      "night": 1335,
      "No. ": 1336,
      "isc": 1337,
      "Man": 1338,
      "report ": 1339,
      "00 ": 1340,
      "Oct": 1341,
      "ms ": 1342,
      "ble": 1343,
      "rest": 1344,
      ".N": 1345,
      "land ": 1346,
      "spec": 1347,
      "ta": 1348,
      "Afgh": 1349,
      "inc": 1350,
      "Champ": 1351,
      "'t ": 1352,
      "what ": 1353,
      "Gen": 1354,
      "ond": 1355,
      "ult": 1356,
      "India ": 1357,
      "industr": 1358,
      "After ": 1359,
      "AFP) ": 1360,
      "EN": 1361,
      "United States ": 1362,
      "Vi": 1363,
      "still ": 1364,
      ". B": 1365,
      "since ": 1366,
      "ion, ": 1367,
      "ops ": 1368,
      "Japan": 1369,
      "four ": 1370,
      "led ": 1371,
      "e in ": 1372,
      "team": 1373,
      "after the ": 1374,
      "while ": 1375,
      "Par": 1376,
      "o-": 1377,
      "on Monday ": 1378,
      "y's ": 1379,
      "AFP - ": 1380,
      "AFP) AFP - ": 1381,
      " NEW YORK (Reuters) - ": 1382,
      "eas": 1383,
      "ire": 1384,
      "asp": 1385,
      "buil": 1386,
      "John ": 1387,
      "land": 1388,
      "CE": 1389,
      "dro": 1390,
      "AG": 1391,
      "IS": 1392,
      "vot": 1393,
      "eld ": 1394,
      "Japan ": 1395,
      "7 ": 1396,
      "ros": 1397,
      "1-": 1398,
      "on Tuesday ": 1399,
      "He": 1400,
      "five ": 1401,
      "e to ": 1402,
      "world": 1403,
      "scor": 1404,
      "sib": 1405,
      "reless ": 1406,
      "gest ": 1407,
      "side ": 1408,
      "CO": 1409,
      "a's ": 1410,
      "computer ": 1411,
      "Off": 1412,
      "TO": 1413,
      "2-": 1414,
      "ps ": 1415,
      ".com": 1416,
      "even ": 1417,
      "Orac": 1418,
      "ask": 1419,
      "(Reuters) - ": 1420,
      "giant ": 1421,
      "s/": 1422,
      "develop": 1423,
      "Dav": 1424,
      "League ": 1425,
      "ping ": 1426,
      "ious ": 1427,
      "International ": 1428,
      "companies ": 1429,
      "that it ": 1430,
      "Bo": 1431,
      "nuc": 1432,
      "injur": 1433,
      "tel ": 1434,
      "down": 1435,
      "high ": 1436,
      "ail ": 1437,
      "claim": 1438,
      "contro": 1439,
      "er to ": 1440,
      "urg": 1441,
      "lo": 1442,
      "Palestinian ": 1443,
      "cor": 1444,
      "at least ": 1445,
      "Oil ": 1446,
      "test": 1447,
      "s for ": 1448,
      "only ": 1449,
      "service ": 1450,
      "IBM ": 1451,
      "acqu": 1452,
      "Fin": 1453,
      "being ": 1454,
      "less ": 1455,
      "rib": 1456,
      "sales ": 1457,
      "rime Minister ": 1458,
      "Full": 1459,
      "20": 1460,
      "NAS": 1461,
      "oon ": 1462,
      "bre": 1463,
      "8 ": 1464,
      "SE": 1465,
      "ectr": 1466,
      "INGTON": 1467,
      "info": 1468,
      "com/": 1469,
      "Afr": 1470,
      "surg": 1471,
      "business ": 1472,
      "technology ": 1473,
      "Afric": 1474,
      "month ": 1475,
      "coach ": 1476,
      "Mc": 1477,
      "like ": 1478,
      "and a ": 1479,
      "investor.": 1480,
      "into the ": 1481,
      "on Wednesday ": 1482,
      "quote": 1483,
      "ers to ": 1484,
      "target=": 1485,
      "reuters.com/": 1486,
      "/stock": 1487,
      "/full": 1488,
      "x?ticker=": 1489,
      "e.asp": 1490,
      "Quote.asp": 1491,
      "quickinfo": 1492,
      "&lt;A HREF=\"http://www.investor.": 1493,
      "s/quickinfo": 1494,
      "FullQuote.asp": 1495,
      "quote\"&gt;": 1496,
      "target=/stock": 1497,
      "reuters.com/FullQuote.asp": 1498,
      "/fullquote\"&gt;": 1499,
      "&lt;A HREF=\"http://www.investor.reuters.com/FullQuote.asp": 1500,
      "s/quickinfo/fullquote\"&gt;": 1501,
      "target=/stocks/quickinfo/fullquote\"&gt;": 1502,
      "&lt;A HREF=\"http://www.investor.reuters.com/FullQuote.aspx?ticker=": 1503,
      "kn": 1504,
      "search ": 1505,
      "org": 1506,
      "sum": 1507,
      "ense ": 1508,
      "major ": 1509,
      "UK": 1510,
      "sk": 1511,
      "sw": 1512,
      "nor": 1513,
      "put": 1514,
      "drug": 1515,
      "ed its ": 1516,
      "leader ": 1517,
      " L": 1518,
      "ects ": 1519,
      "long": 1520,
      "Window": 1521,
      "ility ": 1522,
      "ane ": 1523,
      "plans to ": 1524,
      "ional ": 1525,
      "cur": 1526,
      "stat": 1527,
      "Gaz": 1528,
      "Sept": 1529,
      "obal ": 1530,
      "Olympic ": 1531,
      "er-": 1532,
      "launch": 1533,
      "maker ": 1534,
      "ASH": 1535,
      "enter": 1536,
      "Ag": 1537,
      "phone ": 1538,
      "contr": 1539,
      "ollow": 1540,
      "ste": 1541,
      "by the ": 1542,
      "military ": 1543,
      "ought ": 1544,
      "Inc.": 1545,
      "plan ": 1546,
      "ures ": 1547,
      "attle ": 1548,
      "you ": 1549,
      "(AFP) AFP - ": 1550,
      "Hou": 1551,
      "pe ": 1552,
      "son": 1553,
      "state ": 1554,
      "disc": 1555,
      "AD": 1556,
      "on Thursday ": 1557,
      "urric": 1558,
      "ted ": 1559,
      "ing in ": 1560,
      "Israeli ": 1561,
      "bid ": 1562,
      "mission ": 1563,
      "left ": 1564,
      "ivers": 1565,
      "ech ": 1566,
      "ever ": 1567,
      "Group ": 1568,
      "ed, ": 1569,
      "court ": 1570,
      "dou": 1571,
      "financ": 1572,
      "pite ": 1573,
      "ASHINGTON": 1574,
      "WASHINGTON": 1575,
      "numb": 1576,
      "Washing": 1577,
      "poin": 1578,
      "play ": 1579,
      "10 ": 1580,
      "ied ": 1581,
      "stud": 1582,
      "ular ": 1583,
      "col": 1584,
      "at a ": 1585,
      "ery ": 1586,
      "issu": 1587,
      "unic": 1588,
      "ver ": 1589,
      "Prime Minister ": 1590,
      "erry ": 1591,
      "ustom": 1592,
      "Tw": 1593,
      "ush": 1594,
      "official ": 1595,
      "air ": 1596,
      "ship": 1597,
      "tit": 1598,
      "ians ": 1599,
      "Australia ": 1600,
      "North ": 1601,
      "ek ": 1602,
      "Apple ": 1603,
      "against the ": 1604,
      "wom": 1605,
      "run ": 1606,
      "fact": 1607,
      "after a ": 1608,
      "biggest ": 1609,
      "Bag": 1610,
      "EU": 1611,
      "test ": 1612,
      "minist": 1613,
      "becaus": 1614,
      "re ": 1615,
      "ights ": 1616,
      "say ": 1617,
      "3-": 1618,
      "ploy": 1619,
      "compet": 1620,
      "have been ": 1621,
      "start ": 1622,
      "Ma": 1623,
      "put ": 1624,
      "Russian ": 1625,
      "camp": 1626,
      "Gu": 1627,
      "go ": 1628,
      "sett": 1629,
      "latest ": 1630,
      "National ": 1631,
      "add": 1632,
      "said it ": 1633,
      "prom": 1634,
      "cut ": 1635,
      "People": 1636,
      "country ": 1637,
      "sel": 1638,
      "ers.": 1639,
      "ins ": 1640,
      "fut": 1641,
      "spe": 1642,
      "to be ": 1643,
      "music ": 1644,
      "Canadian ": 1645,
      "Ear": 1646,
      "Sch": 1647,
      "hda": 1648,
      "Pres": 1649,
      "proc": 1650,
      "move ": 1651,
      "ath ": 1652,
      "ium ": 1653,
      "him ": 1654,
      " amp": 1655,
      "Dar": 1656,
      "\\$5": 1657,
      "vir": 1658,
      "PeopleSof": 1659,
      "y-": 1660,
      "Del": 1661,
      "uk": 1662,
      "Bar": 1663,
      "State ": 1664,
      "Dec": 1665,
      "viol": 1666,
      "police ": 1667,
      "mu": 1668,
      "Aug": 1669,
      "aut": 1670,
      "EL": 1671,
      "struc": 1672,
      "election ": 1673,
      "Sup": 1674,
      "profit ": 1675,
      "mobile ": 1676,
      "Oracle ": 1677,
      " and ": 1678,
      "residential ": 1679,
      "England ": 1680,
      "ards ": 1681,
      "emp": 1682,
      " F": 1683,
      "bank": 1684,
      "Yan": 1685,
      "follow": 1686,
      "lear": 1687,
      "stra": 1688,
      "Sox ": 1689,
      "ik": 1690,
      "online ": 1691,
      "pris": 1692,
      "stand": 1693,
      "ected ": 1694,
      "round ": 1695,
      "Stre": 1696,
      "start": 1697,
      "ful ": 1698,
      "amil": 1699,
      "ection ": 1700,
      "1.": 1701,
      "Intel ": 1702,
      "2.": 1703,
      "Serv": 1704,
      "look ": 1705,
      "rose ": 1706,
      "Sud": 1707,
      "ply ": 1708,
      "OND": 1709,
      "part ": 1710,
      "ots ": 1711,
      "Bost": 1712,
      "Baghda": 1713,
      "custom": 1714,
      "to re": 1715,
      "low": 1716,
      "growth ": 1717,
      "rac": 1718,
      "Fren": 1719,
      "succ": 1720,
      "on Friday ": 1721,
      "market": 1722,
      "pon": 1723,
      "ears ": 1724,
      "eign ": 1725,
      "pass": 1726,
      "lev": 1727,
      "back": 1728,
      "Stocks ": 1729,
      "ude ": 1730,
      "ine": 1731,
      "Open ": 1732,
      "War": 1733,
      "tain": 1734,
      "war ": 1735,
      "direc": 1736,
      "Bu": 1737,
      "o, ": 1738,
      "deb": 1739,
      "buy ": 1740,
      "Comm": 1741,
      "Co. ": 1742,
      "ahead ": 1743,
      "Indi": 1744,
      "soci": 1745,
      "a new ": 1746,
      "ers and ": 1747,
      "Up ": 1748,
      "continu": 1749,
      "Ge": 1750,
      "Iran ": 1751,
      "Pol": 1752,
      "effor": 1753,
      "concer": 1754,
      "sou": 1755,
      "Cr": 1756,
      "Bra": 1757,
      "hist": 1758,
      "u ": 1759,
      "fun": 1760,
      "Windows ": 1761,
      "Ital": 1762,
      "One ": 1763,
      "ines ": 1764,
      "ONDON": 1765,
      "where ": 1766,
      "-based ": 1767,
      "used ": 1768,
      "rais": 1769,
      "ago ": 1770,
      "king ": 1771,
      "progr": 1772,
      "IT": 1773,
      "Linu": 1774,
      "higher ": 1775,
      "Russia ": 1776,
      "For ": 1777,
      "We": 1778,
      "use ": 1779,
      "ution ": 1780,
      "s, the ": 1781,
      "Gaza ": 1782,
      "found ": 1783,
      "Sports ": 1784,
      "ity of ": 1785,
      "4-": 1786,
      "Will": 1787,
      "tou": 1788,
      "ier ": 1789,
      ", 2004": 1790,
      "terror": 1791,
      "ats ": 1792,
      "Bank ": 1793,
      "ideo ": 1794,
      "ended ": 1795,
      "lik": 1796,
      "place ": 1797,
      "Franc": 1798,
      " people ": 1799,
      "ven ": 1800,
      "releas": 1801,
      "Dem": 1802,
      "Flor": 1803,
      "right ": 1804,
      "hear": 1805,
      "a f": 1806,
      "otball ": 1807,
      "public ": 1808,
      "Cent": 1809,
      "UN ": 1810,
      "roc": 1811,
      "ney ": 1812,
      "vent": 1813,
      "Mot": 1814,
      "industry ": 1815,
      "itch": 1816,
      "Yanke": 1817,
      "ether ": 1818,
      "international ": 1819,
      "world #39;s ": 1820,
      " C": 1821,
      "ble ": 1822,
      "firm ": 1823,
      "ey": 1824,
      "third-": 1825,
      "TV": 1826,
      "change ": 1827,
      "Australian ": 1828,
      "t to ": 1829,
      "6;": 1830,
      "An ": 1831,
      "West ": 1832,
      "Two ": 1833,
      ", which ": 1834,
      "should ": 1835,
      "space ": 1836,
      "nuclear ": 1837,
      "25": 1838,
      "tre": 1839,
      "old": 1840,
      "Web ": 1841,
      "them ": 1842,
      "ool ": 1843,
      "Tim": 1844,
      "sit": 1845,
      "ators ": 1846,
      "7-": 1847,
      "Associ": 1848,
      "Mac": 1849,
      "around ": 1850,
      "open ": 1851,
      "stocks ": 1852,
      "Wednesday.": 1853,
      "cit": 1854,
      "ative ": 1855,
      "ung": 1856,
      "ages ": 1857,
      "Sal": 1858,
      "Tur": 1859,
      "HI": 1860,
      "own": 1861,
      "year-": 1862,
      "ress": 1863,
      "agreed to ": 1864,
      "ones ": 1865,
      "els ": 1866,
      "ood": 1867,
      "cost": 1868,
      "polit": 1869,
      "b ": 1870,
      "attack ": 1871,
      "thor": 1872,
      "giv": 1873,
      "dig": 1874,
      "face ": 1875,
      "one of the ": 1876,
      "Pakistan ": 1877,
      "there ": 1878,
      "investig": 1879,
      "Phil": 1880,
      "Network": 1881,
      "Araf": 1882,
      "PeopleSoft ": 1883,
      "come ": 1884,
      "took ": 1885,
      "my ": 1886,
      "fail": 1887,
      "9 ": 1888,
      "mor": 1889,
      "Isl": 1890,
      "od ": 1891,
      "campa": 1892,
      "Dis": 1893,
      "vo": 1894,
      "ed with ": 1895,
      "possib": 1896,
      "pay ": 1897,
      "a #39;s ": 1898,
      "data ": 1899,
      "ple": 1900,
      "yp": 1901,
      "earnings ": 1902,
      "dom": 1903,
      "trade ": 1904,
      ". H": 1905,
      "ult ": 1906,
      "Darfur": 1907,
      "Boston ": 1908,
      "idn": 1909,
      "plic": 1910,
      "Tuesday.": 1911,
      "ones": 1912,
      "stock ": 1913,
      "thing ": 1914,
      "riz": 1915,
      "Fall": 1916,
      "ai": 1917,
      "nearly ": 1918,
      "men ": 1919,
      "Washington ": 1920,
      "alleg": 1921,
      "Ed": 1922,
      "cut": 1923,
      "adv": 1924,
      "past ": 1925,
      "Dep": 1926,
      "San ": 1927,
      "tain ": 1928,
      "quest": 1929,
      "30": 1930,
      "Thursday.": 1931,
      "Sw": 1932,
      "dollar ": 1933,
      "#36;": 1934,
      "Wall ": 1935,
      "regul": 1936,
      "reported ": 1937,
      "ley ": 1938,
      "gold ": 1939,
      "won ": 1940,
      "French ": 1941,
      "bas": 1942,
      "fell ": 1943,
      "UN": 1944,
      "2004 ": 1945,
      "Octob": 1946,
      "ral ": 1947,
      "economic ": 1948,
      "exper": 1949,
      "look": 1950,
      "ation of ": 1951,
      "es for ": 1952,
      "aid ": 1953,
      ". Th": 1954,
      "plac": 1955,
      "Fir": 1956,
      "threat": 1957,
      "Ang": 1958,
      "sumer ": 1959,
      "strong": 1960,
      "firm": 1961,
      "including ": 1962,
      "ed at ": 1963,
      "rece": 1964,
      "ectron": 1965,
      "Research": 1966,
      "Ab": 1967,
      "Japanese ": 1968,
      "det": 1969,
      "rival ": 1970,
      "rupt": 1971,
      "ed by the ": 1972,
      "div": 1973,
      "prices ": 1974,
      "ference ": 1975,
      "14": 1976,
      "ion of ": 1977,
      " poin": 1978,
      "do ": 1979,
      "Rec": 1980,
      "date ": 1981,
      "executive ": 1982,
      "As ": 1983,
      "ons ": 1984,
      "ing of ": 1985,
      "Quote, ": 1986,
      "ifor": 1987,
      "equ": 1988,
      "s: ": 1989,
      "close ": 1990,
      "\\$4": 1991,
      "driv": 1992,
      "n #39;t ": 1993,
      "position ": 1994,
      "Ath": 1995,
      "Red Sox ": 1996,
      "curr": 1997,
      "services ": 1998,
      "ior ": 1999,
      "ific": 2000,
      "Corp.": 2001,
      " #36;": 2002,
      "join": 2003,
      "ator ": 2004,
      "illion": 2005,
      "much ": 2006,
      "du": 2007,
      "ind ": 2008,
      "Des": 2009,
      "Monday.": 2010,
      "Iv": 2011,
      "Sports Network": 2012,
      "employ": 2013,
      "More ": 2014,
      "not": 2015,
      "global ": 2016,
      "ike ": 2017,
      "Sports Network) - ": 2018,
      ".N ": 2019,
      "reas": 2020,
      "pop": 2021,
      "ed an ": 2022,
      "   ": 2023,
      "Har": 2024,
      "inn": 2025,
      "Friday.": 2026,
      "stre": 2027,
      "ing for ": 2028,
      "ing its ": 2029,
      "ower": 2030,
      "ury ": 2031,
      "despite ": 2032,
      "source ": 2033,
      "federal ": 2034,
      "ames ": 2035,
      "isco ": 2036,
      ".N&lt;/A&gt;": 2037,
      "18": 2038,
      "ull ": 2039,
      "car ": 2040,
      "oward ": 2041,
      "ott": 2042,
      "mid": 2043,
      "urricane ": 2044,
      "mod": 2045,
      "rist": 2046,
      "Ste": 2047,
      "Big": 2048,
      "Game ": 2049,
      "due ": 2050,
      "days ": 2051,
      "president ": 2052,
      "anal": 2053,
      "ida ": 2054,
      "Vir": 2055,
      "reports ": 2056,
      "Ham": 2057,
      "Te": 2058,
      "hum": 2059,
      "likely ": 2060,
      "Califor": 2061,
      "Californ": 2062,
      "Def": 2063,
      "ism ": 2064,
      "ial": 2065,
      "dist": 2066,
      "Federal ": 2067,
      "remain": 2068,
      "support ": 2069,
      "ile, ": 2070,
      "players ": 2071,
      "Am": 2072,
      "expected to ": 2073,
      "11": 2074,
      "ends ": 2075,
      "half ": 2076,
      "NASA ": 2077,
      "ensive ": 2078,
      "about the ": 2079,
      "To ": 2080,
      "sever": 2081,
      "from a ": 2082,
      "strong ": 2083,
      "ies.": 2084,
      "Tal": 2085,
      "scient": 2086,
      "out of ": 2087,
      "Wall Stre": 2088,
      "also ": 2089,
      "olv": 2090,
      "soldi": 2091,
      " (AP) AP - ": 2092,
      "Court ": 2093,
      "an, ": 2094,
      "news ": 2095,
      "free ": 2096,
      "long ": 2097,
      "under": 2098,
      "oil prices ": 2099,
      "dead": 2100,
      "up to ": 2101,
      "alth ": 2102,
      "share ": 2103,
      "Europe ": 2104,
      "meet": 2105,
      "som": 2106,
      "sell": 2107,
      "Tex": 2108,
      "shares ": 2109,
      "Sing": 2110,
      "beat ": 2111,
      "six": 2112,
      "unications ": 2113,
      "At": 2114,
      "ling ": 2115,
      "pur": 2116,
      "TH": 2117,
      "coll": 2118,
      "near ": 2119,
      "Su": 2120,
      ".N target=/stocks/quickinfo/fullquote\"&gt;": 2121,
      "provid": 2122,
      "General ": 2123,
      "unt": 2124,
      "Union ": 2125,
      "e's ": 2126,
      "ina ": 2127,
      "reach": 2128,
      "nation": 2129,
      "po": 2130,
      "released ": 2131,
      "crit": 2132,
      "late ": 2133,
      "reb": 2134,
      "ittle ": 2135,
      "how ": 2136,
      "ass ": 2137,
      "rug": 2138,
      "gener": 2139,
      "udge ": 2140,
      "ionship ": 2141,
      "oods ": 2142,
      "see ": 2143,
      "Security ": 2144,
      "field ": 2145,
      "Linux ": 2146,
      "high-": 2147,
      "uj": 2148,
      "th-": 2149,
      "famil": 2150,
      "per ": 2151,
      "ref": 2152,
      "veil": 2153,
      "touch": 2154,
      "12": 2155,
      "ults ": 2156,
      "forec": 2157,
      "approv": 2158,
      "ies, ": 2159,
      "La": 2160,
      "s' ": 2161,
      "retail": 2162,
      "legal ": 2163,
      "Ro": 2164,
      "ing and ": 2165,
      "fourth ": 2166,
      "d.": 2167,
      "PC ": 2168,
      " pr": 2169,
      "expected ": 2170,
      "hold ": 2171,
      "agreement ": 2172,
      "y of ": 2173,
      "agu": 2174,
      "raft ": 2175,
      "Kerry ": 2176,
      "give ": 2177,
      "Tro": 2178,
      "On ": 2179,
      "see": 2180,
      "Med": 2181,
      "offer ": 2182,
      "return ": 2183,
      "d, ": 2184,
      "launch ": 2185,
      "on, ": 2186,
      "wid": 2187,
      "two-": 2188,
      "both ": 2189,
      "ergy ": 2190,
      "again ": 2191,
      "recent ": 2192,
      "Baghdad ": 2193,
      "loc": 2194,
      "keep ": 2195,
      "ner": 2196,
      "es on ": 2197,
      "series ": 2198,
      "AI": 2199,
      "al, ": 2200,
      "prot": 2201,
      "ree ": 2202,
      "Micha": 2203,
      "three-": 2204,
      "video ": 2205,
      "in an ": 2206,
      "year-old ": 2207,
      "Sen": 2208,
      "At ": 2209,
      "Mo": 2210,
      "Israel ": 2211,
      "RAN": 2212,
      "weeks ": 2213,
      "Pa": 2214,
      "ait": 2215,
      "are": 2216,
      "ed his ": 2217,
      "rate ": 2218,
      "consid": 2219,
      "ix": 2220,
      "Inv": 2221,
      "William": 2222,
      "tor ": 2223,
      "inf": 2224,
      "a m": 2225,
      "contract ": 2226,
      "title ": 2227,
      "gain": 2228,
      "action ": 2229,
      "amm": 2230,
      "es the ": 2231,
      "Univers": 2232,
      "Michael ": 2233,
      "5-": 2234,
      "rap": 2235,
      "er and ": 2236,
      "rol": 2237,
      "EU ": 2238,
      "away ": 2239,
      "p&gt;": 2240,
      "attacks ": 2241,
      "sure ": 2242,
      "3.": 2243,
      "es. ": 2244,
      "plann": 2245,
      "ration ": 2246,
      "trans": 2247,
      "seven ": 2248,
      "view": 2249,
      "ink ": 2250,
      "the first ": 2251,
      "such ": 2252,
      "AB": 2253,
      "iev": 2254,
      "ale ": 2255,
      "rip": 2256,
      "ai ": 2257,
      "bar": 2258,
      "ently ": 2259,
      "rad": 2260,
      "ern ": 2261,
      "anks ": 2262,
      "this week ": 2263,
      "Wal": 2264,
      "ez": 2265,
      "idence ": 2266,
      "wireless ": 2267,
      "without ": 2268,
      "siz": 2269,
      "day. ": 2270,
      "Bla": 2271,
      "NF": 2272,
      "shot ": 2273,
      "aud": 2274,
      "investors ": 2275,
      "hou": 2276,
      "allow": 2277,
      "Says ": 2278,
      "told ": 2279,
      "aniz": 2280,
      "several ": 2281,
      "hard ": 2282,
      "whether ": 2283,
      "Korea ": 2284,
      "Gi": 2285,
      "ways ": 2286,
      "ready ": 2287,
      "ber": 2288,
      "bod": 2289,
      "killing ": 2290,
      "reven": 2291,
      "form ": 2292,
      "presidential ": 2293,
      "users ": 2294,
      "star": 2295,
      "e, the ": 2296,
      "Ac": 2297,
      "Gl": 2298,
      "fu": 2299,
      "ger ": 2300,
      "peace ": 2301,
      "price ": 2302,
      "stro": 2303,
      "ap ": 2304,
      "Stor": 2305,
      "lines ": 2306,
      "author": 2307,
      "t, ": 2308,
      "defe": 2309,
      "public": 2310,
      "financial ": 2311,
      "Air ": 2312,
      "Is ": 2313,
      "SP": 2314,
      "ian": 2315,
      "vol": 2316,
      "akes ": 2317,
      "NB": 2318,
      "etro": 2319,
      "leading ": 2320,
      "A, ": 2321,
      "troops ": 2322,
      "caus": 2323,
      "lim": 2324,
      "Florida ": 2325,
      "y. ": 2326,
      "propos": 2327,
      "Profile, ": 2328,
      " M": 2329,
      "OS ": 2330,
      "ket ": 2331,
      "Ber": 2332,
      "conf": 2333,
      "Pat": 2334,
      "your ": 2335,
      ": Quote, ": 2336,
      "pat": 2337,
      "ress ": 2338,
      "digital ": 2339,
      "Hurricane ": 2340,
      "so": 2341,
      ": Quote, Profile, ": 2342,
      "Ret": 2343,
      ": Quote, Profile, Research": 2344,
      " -- ": 2345,
      "inform": 2346,
      "decision ": 2347,
      ": Quote, Profile, Research) ": 2348,
      "good ": 2349,
      "third-quarter ": 2350,
      "acros": 2351,
      "telev": 2352,
      "might ": 2353,
      "ent, ": 2354,
      "iP": 2355,
      "here ": 2356,
      "lower ": 2357,
      "Exp": 2358,
      "in Iraq ": 2359,
      "secut": 2360,
      "cour": 2361,
      "Computer ": 2362,
      "coming ": 2363,
      "suit ": 2364,
      "Democ": 2365,
      "national ": 2366,
      " (C": 2367,
      ".O": 2368,
      "view ": 2369,
      "UK ": 2370,
      "Afghan": 2371,
      "works ": 2372,
      "Mart": 2373,
      "iness ": 2374,
      "al.": 2375,
      "osp": 2376,
      "qual": 2377,
      "design": 2378,
      "become ": 2379,
      "Wall Street ": 2380,
      "demand ": 2381,
      "chil": 2382,
      "France ": 2383,
      "B ": 2384,
      "accoun": 2385,
      "Chinese ": 2386,
      "dre": 2387,
      "ush ": 2388,
      "edly ": 2389,
      "case ": 2390,
      "in its ": 2391,
      "well ": 2392,
      "Rob": 2393,
      "best ": 2394,
      "America ": 2395,
      "idnapp": 2396,
      "yw": 2397,
      "ort ": 2398,
      "year, ": 2399,
      "receiv": 2400,
      "rid": 2401,
      "for the first ": 2402,
      "workers ": 2403,
      "leaders ": 2404,
      "economy ": 2405,
      "Cong": 2406,
      "Sony ": 2407,
      "cop": 2408,
      "applic": 2409,
      "Thursday, ": 2410,
      "OS": 2411,
      "cel": 2412,
      "Arafat ": 2413,
      "No ": 2414,
      "50": 2415,
      "Att": 2416,
      "Monday, ": 2417,
      "straight ": 2418,
      "Yah": 2419,
      "system ": 2420,
      "grou": 2421,
      "ball": 2422,
      "ept ": 2423,
      "Tuesday, ": 2424,
      "quarterly ": 2425,
      "den": 2426,
      "race ": 2427,
      "ruptc": 2428,
      "PC": 2429,
      "Char": 2430,
      "oo ": 2431,
      "ooks ": 2432,
      "ker ": 2433,
      "neg": 2434,
      "it was ": 2435,
      "Friday, ": 2436,
      "little ": 2437,
      "Play": 2438,
      "ts to ": 2439,
      "hard": 2440,
      "a p": 2441,
      "appear": 2442,
      "in L": 2443,
      "chall": 2444,
      "estern ": 2445,
      "world's ": 2446,
      "ses ": 2447,
      "ward ": 2448,
      "board ": 2449,
      "six ": 2450,
      "Depart": 2451,
      "System": 2452,
      "fall ": 2453,
      "chip": 2454,
      "club": 2455,
      "research": 2456,
      "record": 2457,
      "Oil": 2458,
      "lost ": 2459,
      "sell ": 2460,
      "broad": 2461,
      "hind ": 2462,
      "ments ": 2463,
      "computer": 2464,
      " the ": 2465,
      "football ": 2466,
      "this week": 2467,
      "champion ": 2468,
      "site ": 2469,
      "we ": 2470,
      "ater ": 2471,
      "Commission ": 2472,
      "wins ": 2473,
      "Indones": 2474,
      "Ne": 2475,
      "\\\\": 2476,
      "mis": 2477,
      "running ": 2478,
      "gets ": 2479,
      "foreign ": 2480,
      "using ": 2481,
      "interest ": 2482,
      "ousand": 2483,
      "Over ": 2484,
      "power ": 2485,
      "insur": 2486,
      "attemp": 2487,
      "draw": 2488,
      "Islam": 2489,
      "jum": 2490,
      "rej": 2491,
      "Dev": 2492,
      "Lab": 2493,
      "cas": 2494,
      "proble": 2495,
      "Sy": 2496,
      "eover ": 2497,
      "German ": 2498,
      " amp; ": 2499,
      "she ": 2500,
      "mag": 2501,
      "Yankees ": 2502,
      "servic": 2503,
      "campaign ": 2504,
      "ent.": 2505,
      "rest ": 2506,
      "ustri": 2507,
      "political ": 2508,
      "came ": 2509,
      "year.": 2510,
      "forces ": 2511,
      "trial ": 2512,
      "ufact": 2513,
      "chip ": 2514,
      "activ": 2515,
      "ID": 2516,
      "rid ": 2517,
      "ben": 2518,
      "City ": 2519,
      "(AP) AP - The ": 2520,
      "Tel": 2521,
      "ee ": 2522,
      "rank": 2523,
      "unveil": 2524,
      "Sun ": 2525,
      "oti": 2526,
      "increase ": 2527,
      "foc": 2528,
      "carri": 2529,
      "erve ": 2530,
      "ed in the ": 2531,
      "death ": 2532,
      "May ": 2533,
      "bit": 2534,
      "ktop ": 2535,
      "etting ": 2536,
      "Wednesday, ": 2537,
      "Darfur ": 2538,
      "person": 2539,
      "eball ": 2540,
      "arrest": 2541,
      "complet": 2542,
      "October ": 2543,
      "rang": 2544,
      "rebel": 2545,
      "Chic": 2546,
      "attack": 2547,
      "eff": 2548,
      "need": 2549,
      "Lead": 2550,
      "gra": 2551,
      "ham ": 2552,
      "st-": 2553,
      "consumer ": 2554,
      "\\$2": 2555,
      "eph": 2556,
      "keep": 2557,
      "increas": 2558,
      "strike ": 2559,
      "wide ": 2560,
      "operating ": 2561,
      "Canadian Pres": 2562,
      "dif": 2563,
      "ged ": 2564,
      "sem": 2565,
      "earli": 2566,
      "saf": 2567,
      "appoin": 2568,
      "bur": 2569,
      "hour": 2570,
      "anti-": 2571,
      "night.": 2572,
      "Afghan ": 2573,
      "Brow": 2574,
      "prise ": 2575,
      "Indian ": 2576,
      "bab": 2577,
      "as it ": 2578,
      "explos": 2579,
      "Atl": 2580,
      "By ": 2581,
      "Arsen": 2582,
      "dollar": 2583,
      "Bay ": 2584,
      "is the ": 2585,
      "could be ": 2586,
      "Bel": 2587,
      "ipp": 2588,
      "Texas ": 2589,
      "Mad": 2590,
      "during ": 2591,
      "nation ": 2592,
      "irac": 2593,
      "Space ": 2594,
      "G ": 2595,
      "one-": 2596,
      "7.": 2597,
      "Fo": 2598,
      "ert ": 2599,
      "Former ": 2600,
      "Falluj": 2601,
      "Cub": 2602,
      "infl": 2603,
      "media ": 2604,
      "Virg": 2605,
      "Sm": 2606,
      "Technolog": 2607,
      "that he ": 2608,
      "ed to the ": 2609,
      "16": 2610,
      "Red": 2611,
      "ufactur": 2612,
      "net ": 2613,
      "ills ": 2614,
      "LE": 2615,
      "Sad": 2616,
      "fall": 2617,
      "watch": 2618,
      "init": 2619,
      "in 200": 2620,
      "amid ": 2621,
      "Hol": 2622,
      "ator": 2623,
      "HD": 2624,
      "Ry": 2625,
      "ster ": 2626,
      "ension ": 2627,
      "California ": 2628,
      "Sl": 2629,
      "wound": 2630,
      "is a ": 2631,
      "ugh": 2632,
      "of his ": 2633,
      "strug": 2634,
      "heav": 2635,
      "perform": 2636,
      "ourn": 2637,
      "fire ": 2638,
      "Sunday.": 2639,
      "ace": 2640,
      "MS": 2641,
      "fight ": 2642,
      "ia, ": 2643,
      "tions ": 2644,
      "games ": 2645,
      ". L": 2646,
      "oss ": 2647,
      "Fi": 2648,
      "Ver": 2649,
      "did ": 2650,
      "Britain ": 2651,
      "histor": 2652,
      "tor": 2653,
      "an-": 2654,
      "November ": 2655,
      ". But ": 2656,
      "ud ": 2657,
      "called ": 2658,
      "road": 2659,
      "urt ": 2660,
      "When ": 2661,
      "Atlant": 2662,
      "sim": 2663,
      "top": 2664,
      "ing on ": 2665,
      "him": 2666,
      "corpor": 2667,
      "rive ": 2668,
      "show ": 2669,
      "law ": 2670,
      "EM": 2671,
      "though ": 2672,
      "ed out ": 2673,
      "TV ": 2674,
      "cam": 2675,
      "success": 2676,
      "cost ": 2677,
      "minister ": 2678,
      "way": 2679,
      "President Bush ": 2680,
      "long-": 2681,
      "Braz": 2682,
      "le, ": 2683,
      "tool": 2684,
      "doc": 2685,
      "hold": 2686,
      " produc": 2687,
      "Department ": 2688,
      "got ": 2689,
      "behind ": 2690,
      " mon": 2691,
      "star ": 2692,
      "ability ": 2693,
      "istan": 2694,
      "inst": 2695,
      "Wireless ": 2696,
      "LONDON": 2697,
      "Sol": 2698,
      "appe": 2699,
      "contin": 2700,
      "t's ": 2701,
      "e=\"": 2702,
      "intro": 2703,
      "David ": 2704,
      "because ": 2705,
      "High": 2706,
      "VI": 2707,
      "Invest": 2708,
      "oth": 2709,
      "among ": 2710,
      "ATH": 2711,
      "\\$1.": 2712,
      "battle ": 2713,
      "eight ": 2714,
      "lad": 2715,
      ") -- ": 2716,
      "20 ": 2717,
      "mail ": 2718,
      "Jan": 2719,
      "almost ": 2720,
      "agency ": 2721,
      "bir": 2722,
      "iver": 2723,
      "CEO ": 2724,
      "itive ": 2725,
      "polic": 2726,
      "Houst": 2727,
      "Sudan ": 2728,
      "ed up ": 2729,
      "11 ": 2730,
      "DV": 2731,
      "UR": 2732,
      "pay": 2733,
      "rates ": 2734,
      "tour": 2735,
      "in his ": 2736,
      "Vo": 2737,
      "to-": 2738,
      "Tig": 2739,
      "say": 2740,
      "aking ": 2741,
      "possible ": 2742,
      " G": 2743,
      "results ": 2744,
      "demand": 2745,
      "big ": 2746,
      "management ": 2747,
      "making ": 2748,
      "care": 2749,
      "IP": 2750,
      "ily ": 2751,
      "plans ": 2752,
      "life ": 2753,
      "lab": 2754,
      "Eg": 2755,
      "her": 2756,
      "199": 2757,
      "Don": 2758,
      "ed as ": 2759,
      "super": 2760,
      "release ": 2761,
      "bomb ": 2762,
      "6666": 2763,
      "andid": 2764,
      "during the ": 2765,
      "17": 2766,
      "Bow": 2767,
      "weap": 2768,
      "Ann": 2769,
      "har": 2770,
      "priv": 2771,
      "sing": 2772,
      "tax ": 2773,
      "African ": 2774,
      "Champions ": 2775,
      "Im": 2776,
      "Nig": 2777,
      "a-": 2778,
      "Lt": 2779,
      "match ": 2780,
      "now": 2781,
      "sourc": 2782,
      "ST": 2783,
      "step ": 2784,
      "ium": 2785,
      "set to ": 2786,
      "hostage ": 2787,
      "PD": 2788,
      "Rel": 2789,
      "ester ": 2790,
      "takeover ": 2791,
      ",000": 2792,
      "o.": 2793,
      "for its ": 2794,
      "drug ": 2795,
      "8-": 2796,
      "retary ": 2797,
      "News": 2798,
      "Kar": 2799,
      "eur": 2800,
      "stop ": 2801,
      "idd": 2802,
      "version ": 2803,
      "on Sunday ": 2804,
      "Profit ": 2805,
      "Tra": 2806,
      "writ": 2807,
      "suff": 2808,
      "ying to ": 2809,
      "ed and ": 2810,
      "spok": 2811,
      "fast": 2812,
      "tors ": 2813,
      "ident": 2814,
      "negoti": 2815,
      "g ": 2816,
      "ij": 2817,
      "yesterday, ": 2818,
      "player ": 2819,
      "duce ": 2820,
      "ously ": 2821,
      "Post": 2822,
      "ions of ": 2823,
      "crude ": 2824,
      "un ": 2825,
      "threaten": 2826,
      "yesterday.": 2827,
      "Pac": 2828,
      ", who ": 2829,
      "Egyp": 2830,
      "began ": 2831,
      "Series ": 2832,
      "Bomb": 2833,
      "Cap": 2834,
      "fron": 2835,
      "because of ": 2836,
      "Democrat": 2837,
      "same ": 2838,
      "aver": 2839,
      "suppl": 2840,
      "business": 2841,
      "network ": 2842,
      "NY": 2843,
      "ah ": 2844,
      "Geor": 2845,
      "RO": 2846,
      "prove ": 2847,
      "may be ": 2848,
      "process": 2849,
      "Em": 2850,
      "N. ": 2851,
      "dep": 2852,
      "date": 2853,
      "number of ": 2854,
      "prepar": 2855,
      "100": 2856,
      " points ": 2857,
      "ins": 2858,
      "small ": 2859,
      "Part": 2860,
      "clim": 2861,
      "Bas": 2862,
      " pol": 2863,
      "senior ": 2864,
      "Per": 2865,
      "Fed": 2866,
      "--": 2867,
      "CH": 2868,
      "northern ": 2869,
      "Not ": 2870,
      "saying ": 2871,
      "Grand ": 2872,
      "Out": 2873,
      "bank ": 2874,
      " per ": 2875,
      "control ": 2876,
      "Nations ": 2877,
      "job ": 2878,
      "Update": 2879,
      "point ": 2880,
      "gest": 2881,
      "lip": 2882,
      "school ": 2883,
      "force ": 2884,
      "winning ": 2885,
      "Online ": 2886,
      "manager ": 2887,
      " FRAN": 2888,
      "atell": 2889,
      "growing ": 2890,
      "September ": 2891,
      "ATHEN": 2892,
      "civ": 2893,
      "13": 2894,
      "electron": 2895,
      "asser ": 2896,
      "World Cup ": 2897,
      "known ": 2898,
      "Rad": 2899,
      "hor": 2900,
      "ject ": 2901,
      "This ": 2902,
      "sched": 2903,
      "jobs ": 2904,
      "aj": 2905,
      "judge ": 2906,
      "research ": 2907,
      "If ": 2908,
      "der": 2909,
      "s\\": 2910,
      "es a ": 2911,
      "he was ": 2912,
      "self ": 2913,
      "Test ": 2914,
      ", according to ": 2915,
      "aker ": 2916,
      "slow": 2917,
      "meet ": 2918,
      "KY": 2919,
      "band ": 2920,
      "capital ": 2921,
      "Deal ": 2922,
      "eck": 2923,
      "Tok": 2924,
      "row ": 2925,
      "holi": 2926,
      "southern ": 2927,
      "Angel": 2928,
      "IT ": 2929,
      "Ke": 2930,
      "ather ": 2931,
      "order ": 2932,
      "embers ": 2933,
      "kidnapp": 2934,
      "Stri": 2935,
      "\\$3": 2936,
      "p in ": 2937,
      "boost ": 2938,
      "able to ": 2939,
      "ished ": 2940,
      "Niger": 2941,
      "), ": 2942,
      "fra": 2943,
      "icide ": 2944,
      "emerg": 2945,
      "dead ": 2946,
      " #": 2947,
      "Tor": 2948,
      "ateg": 2949,
      "leav": 2950,
      "improv": 2951,
      "would be ": 2952,
      "plan to ": 2953,
      "future ": 2954,
      "CIS": 2955,
      "cent ": 2956,
      "val": 2957,
      "Search ": 2958,
      "seem": 2959,
      "0.": 2960,
      "FON": 2961,
      "Mal": 2962,
      "pri": 2963,
      "countri": 2964,
      "information ": 2965,
      "iPod ": 2966,
      "Holl": 2967,
      "Job": 2968,
      "Mos": 2969,
      "PE": 2970,
      "fans ": 2971,
      "mat": 2972,
      "crow": 2973,
      "gave ": 2974,
      "hot": 2975,
      "decid": 2976,
      "prin": 2977,
      "television ": 2978,
      "Pric": 2979,
      "fight": 2980,
      "ired ": 2981,
      "second-": 2982,
      "John": 2983,
      "ds of ": 2984,
      "already ": 2985,
      "ation.": 2986,
      "ience ": 2987,
      "on  ": 2988,
      "AN FRAN": 2989,
      "NBA ": 2990,
      "y: ": 2991,
      "it to ": 2992,
      "accused ": 2993,
      "AN FRANCIS": 2994,
      "it is ": 2995,
      "Inter": 2996,
      "spac": 2997,
      "151": 2998,
      "aim ": 2999,
      "energy ": 3000,
      "ote ": 3001,
      "too ": 3002,
      "women ": 3003,
      "Put": 3004,
      "those ": 3005,
      "imp": 3006,
      "avail": 3007,
      "Toky": 3008,
      "ees ": 3009,
      "O (Reuters) - ": 3010,
      "TOKY": 3011,
      "domin": 3012,
      "Cit": 3013,
      "Lond": 3014,
      "ond ": 3015,
      "respon": 3016,
      "victory over ": 3017,
      "IBM": 3018,
      "corporate ": 3019,
      "viv": 3020,
      "aper ": 3021,
      "sug": 3022,
      "Germany ": 3023,
      "fig": 3024,
      "trav": 3025,
      "chief executive ": 3026,
      "Tit": 3027,
      "Saturday.": 3028,
      "Christ": 3029,
      "Chicago ": 3030,
      "icket ": 3031,
      "disput": 3032,
      "ix ": 3033,
      "t.": 3034,
      "Counc": 3035,
      "ro ": 3036,
      "ital": 3037,
      "reme ": 3038,
      "bankruptc": 3039,
      "qualif": 3040,
      "ark": 3041,
      "ota ": 3042,
      "Out ": 3043,
      "sy": 3044,
      "ta ": 3045,
      "taken ": 3046,
      "George ": 3047,
      "ers in ": 3048,
      "that will ": 3049,
      "Italian ": 3050,
      "analyst": 3051,
      "Miss": 3052,
      "ership ": 3053,
      "rel ": 3054,
      "Business ": 3055,
      "First ": 3056,
      "ute ": 3057,
      "by a ": 3058,
      "mark ": 3059,
      "that could ": 3060,
      "violence ": 3061,
      "Do": 3062,
      "ould": 3063,
      "chair": 3064,
      "vert": 3065,
      "scientists ": 3066,
      "candid": 3067,
      "main": 3068,
      "it, ": 3069,
      "short": 3070,
      "Chief ": 3071,
      "n't ": 3072,
      "News ": 3073,
      "Ris": 3074,
      "into a ": 3075,
      "Hal": 3076,
      "Val": 3077,
      "cris": 3078,
      "y and ": 3079,
      "merc": 3080,
      "warned ": 3081,
      "Tri": 3082,
      "elections ": 3083,
      "asket": 3084,
      "on Saturday ": 3085,
      "trou": 3086,
      "House ": 3087,
      "MP": 3088,
      "ousands of ": 3089,
      "Acc": 3090,
      "East ": 3091,
      "chester ": 3092,
      "astern ": 3093,
      "Williams ": 3094,
      "Doll": 3095,
      "Mil": 3096,
      "ties ": 3097,
      "ately ": 3098,
      "ams ": 3099,
      "insurg": 3100,
      "day's ": 3101,
      "oost": 3102,
      "rich": 3103,
      "Giants ": 3104,
      " month": 3105,
      "call ": 3106,
      "ru": 3107,
      "went ": 3108,
      "then ": 3109,
      "en, ": 3110,
      "ed that ": 3111,
      "Canada ": 3112,
      "drop": 3113,
      "ves ": 3114,
      "loss ": 3115,
      "i, ": 3116,
      "From ": 3117,
      "fiel": 3118,
      "Cha": 3119,
      "Di": 3120,
      "Yasser ": 3121,
      "Stud": 3122,
      "Blair ": 3123,
      "che": 3124,
      "surve": 3125,
      "12 ": 3126,
      "Sunday, ": 3127,
      "Bush": 3128,
      "spokes": 3129,
      "Merc": 3130,
      "ers are ": 3131,
      ": The ": 3132,
      "B&gt;": 3133,
      "Miam": 3134,
      "s, and ": 3135,
      "medal ": 3136,
      "Ric": 3137,
      "fav": 3138,
      "sign ": 3139,
      "ever": 3140,
      "find ": 3141,
      "scored ": 3142,
      "owerful ": 3143,
      "downlo": 3144,
      "house ": 3145,
      "dit": 3146,
      "light ": 3147,
      "sent": 3148,
      "until ": 3149,
      "Tai": 3150,
      "earlier ": 3151,
      "continue ": 3152,
      "Bre": 3153,
      "Hew": 3154,
      "for the first time ": 3155,
      "reve": 3156,
      "ific ": 3157,
      "jo": 3158,
      "taking ": 3159,
      "step": 3160,
      "administ": 3161,
      "Afghanistan ": 3162,
      "dog": 3163,
      "it will ": 3164,
      "Americans ": 3165,
      "off the ": 3166,
      "White ": 3167,
      "FT": 3168,
      "last week ": 3169,
      "better ": 3170,
      "European Union ": 3171,
      "organiz": 3172,
      "Paul ": 3173,
      "ty": 3174,
      "wants ": 3175,
      "inning ": 3176,
      "ata ": 3177,
      "militants ": 3178,
      "draw ": 3179,
      "Jul": 3180,
      "sn": 3181,
      "e and ": 3182,
      "pric": 3183,
      "Stad": 3184,
      "s, but ": 3185,
      "company #39;s ": 3186,
      "manufactur": 3187,
      "west ": 3188,
      "le.": 3189,
      "conference ": 3190,
      "outside ": 3191,
      "turn ": 3192,
      "central ": 3193,
      "aff": 3194,
      "Reserve ": 3195,
      "Yahoo ": 3196,
      "era ": 3197,
      "level": 3198,
      "S.": 3199,
      "bor": 3200,
      "main ": 3201,
      "trying to ": 3202,
      "2005 ": 3203,
      "Manchester ": 3204,
      "Pack": 3205,
      "finally ": 3206,
      "5.": 3207,
      "cell ": 3208,
      "mess": 3209,
      "nine ": 3210,
      "confirm": 3211,
      "local ": 3212,
      "Oil prices ": 3213,
      "Houston ": 3214,
      "schedul": 3215,
      "before the ": 3216,
      "ez ": 3217,
      "the\\": 3218,
      "ized ": 3219,
      "charges ": 3220,
      "cast": 3221,
      "d. ": 3222,
      "pract": 3223,
      "Expl": 3224,
      "gas ": 3225,
      "ially ": 3226,
      "union ": 3227,
      "Three ": 3228,
      "beat": 3229,
      "pull": 3230,
      "agg": 3231,
      "general ": 3232,
      "Offic": 3233,
      "Communications ": 3234,
      "eing ": 3235,
      "e\\": 3236,
      "met": 3237,
      "one of ": 3238,
      "Asian ": 3239,
      "AC": 3240,
      "ana ": 3241,
      "ANG": 3242,
      "company, ": 3243,
      "hosp": 3244,
      "ox": 3245,
      "Dollar ": 3246,
      "S, ": 3247,
      "All": 3248,
      "AGHD": 3249,
      "6.": 3250,
      "Bill ": 3251,
      "sent ": 3252,
      "toward ": 3253,
      "opposition ": 3254,
      "takes ": 3255,
      "50 ": 3256,
      "Drug": 3257,
      "N.": 3258,
      "human ": 3259,
      "Fire": 3260,
      "My": 3261,
      "network": 3262,
      "opening ": 3263,
      "Sam": 3264,
      "each ": 3265,
      "ually ": 3266,
      "stake ": 3267,
      "league ": 3268,
      "offer": 3269,
      "vote ": 3270,
      "due to ": 3271,
      "(Sports Network) - ": 3272,
      "batt": 3273,
      "pitch": 3274,
      "ula ": 3275,
      "ation, ": 3276,
      "Airways ": 3277,
      "Oct. ": 3278,
      "AN FRANCISCO": 3279,
      "Dut": 3280,
      "requ": 3281,
      "ounds ": 3282,
      "said the ": 3283,
      "ified ": 3284,
      "customers ": 3285,
      "Not": 3286,
      "Top ": 3287,
      "secur": 3288,
      "involv": 3289,
      " amp;": 3290,
      "NFL ": 3291,
      "icks ": 3292,
      "childr": 3293,
      "Arsenal ": 3294,
      "ban ": 3295,
      "scre": 3296,
      "last night ": 3297,
      "Championship ": 3298,
      "struggl": 3299,
      "previ": 3300,
      ".N&lt;/A&gt; ": 3301,
      "151; ": 3302,
      "cash ": 3303,
      "unity ": 3304,
      "s, a ": 3305,
      "enger ": 3306,
      "reli": 3307,
      "resh ": 3308,
      "undre": 3309,
      "Calif": 3310,
      "Ra": 3311,
      "enough ": 3312,
      "ape ": 3313,
      "half": 3314,
      "meeting ": 3315,
      "ES ": 3316,
      "gun": 3317,
      "estim": 3318,
      "rain": 3319,
      "Nok": 3320,
      "ia's ": 3321,
      "on-": 3322,
      "yet ": 3323,
      "press ": 3324,
      "(Update": 3325,
      "pil": 3326,
      "an un": 3327,
      "party ": 3328,
      "concerns ": 3329,
      "any": 3330,
      "health ": 3331,
      "Qa": 3332,
      "must ": 3333,
      "begin ": 3334,
      "further ": 3335,
      "study ": 3336,
      "BC": 3337,
      "Cam": 3338,
      "Lib": 3339,
      "liam": 3340,
      "when the ": 3341,
      "popular ": 3342,
      "city ": 3343,
      "ex ": 3344,
      "Spain ": 3345,
      "term ": 3346,
      "Software ": 3347,
      "trading ": 3348,
      "imin": 3349,
      "strateg": 3350,
      "a bar": 3351,
      "return": 3352,
      "ease ": 3353,
      "ren": 3354,
      "ows ": 3355,
      "Trade ": 3356,
      "yards ": 3357,
      "seen ": 3358,
      "August ": 3359,
      "Cisco ": 3360,
      "resign": 3361,
      "shop": 3362,
      "country #39;s ": 3363,
      "Card": 3364,
      "city of ": 3365,
      "liv": 3366,
      "ason ": 3367,
      "comb": 3368,
      "Sales ": 3369,
      "ys": 3370,
      "ed  ": 3371,
      "Athens ": 3372,
      "ions.": 3373,
      "Gam": 3374,
      "pot": 3375,
      "uts ": 3376,
      "ically ": 3377,
      "Microsoft Corp. ": 3378,
      "er #39;s ": 3379,
      "ety ": 3380,
      "ells ": 3381,
      "authorities ": 3382,
      "IM": 3383,
      "hib": 3384,
      "exic": 3385,
      "utt": 3386,
      "equip": 3387,
      "revenue ": 3388,
      "BC ": 3389,
      "Nas": 3390,
      "canc": 3391,
      "atter": 3392,
      "in Iraq": 3393,
      "four-": 3394,
      "Real ": 3395,
      "last week": 3396,
      "Inc. (": 3397,
      "e: ": 3398,
      "inals ": 3399,
      "United Nations ": 3400,
      "annual ": 3401,
      "investment ": 3402,
      "it.": 3403,
      "lege ": 3404,
      "import": 3405,
      "Inc. &lt;A HREF=\"http://www.investor.reuters.com/FullQuote.aspx?ticker=": 3406,
      "Sil": 3407,
      "Update ": 3408,
      "dict": 3409,
      "oid ": 3410,
      "western ": 3411,
      "intend": 3412,
      "products ": 3413,
      "following ": 3414,
      "AY": 3415,
      "NH": 3416,
      "happ": 3417,
      "rob": 3418,
      "aimed at ": 3419,
      "between the ": 3420,
      "LAN": 3421,
      "P) - ": 3422,
      "and other ": 3423,
      "is to ": 3424,
      "claims ": 3425,
      "few ": 3426,
      "age of ": 3427,
      "recover": 3428,
      "last": 3429,
      "defense ": 3430,
      "Cre": 3431,
      "Fact": 3432,
      "Just": 3433,
      "Me": 3434,
      "itz": 3435,
      "Bal": 3436,
      "Gold ": 3437,
      "Irel": 3438,
      "Mexic": 3439,
      "low ": 3440,
      "es, the ": 3441,
      "led": 3442,
      "medi": 3443,
      "Secretary ": 3444,
      "Ryder ": 3445,
      "atellite ": 3446,
      "Lif": 3447,
      "Pri": 3448,
      "sets ": 3449,
      "store ": 3450,
      "let ": 3451,
      "season.": 3452,
      "Army ": 3453,
      "quarterback ": 3454,
      "deliv": 3455,
      "insurance ": 3456,
      "ona ": 3457,
      "Nov. ": 3458,
      "introduc": 3459,
      "Uk": 3460,
      "fri": 3461,
      "30 ": 3462,
      "You": 3463,
      "cess": 3464,
      "hits ": 3465,
      "once ": 3466,
      "Mark ": 3467,
      "Dell ": 3468,
      "IC": 3469,
      "sold ": 3470,
      "want": 3471,
      "ecom": 3472,
      "U.N. ": 3473,
      "program ": 3474,
      "Ven": 3475,
      "itnes": 3476,
      "threat ": 3477,
      "list ": 3478,
      "in the first ": 3479,
      "first-": 3480,
      "Tony ": 3481,
      "UL": 3482,
      "ff ": 3483,
      "sess": 3484,
      "Mich": 3485,
      "build ": 3486,
      "injured ": 3487,
      "Jer": 3488,
      "Milit": 3489,
      "es that ": 3490,
      "ers of ": 3491,
      "appro": 3492,
      "Republic": 3493,
      "benef": 3494,
      "High ": 3495,
      "UPD": 3496,
      "soon ": 3497,
      "ya ": 3498,
      ". - ": 3499,
      " - The ": 3500,
      "provide ": 3501,
      "os Angel": 3502,
      "speed ": 3503,
      "Prem": 3504,
      "Rock": 3505,
      "dam": 3506,
      "Sharon ": 3507,
      " LONDON": 3508,
      "UPDAT": 3509,
      "cu": 3510,
      "on.": 3511,
      "en's ": 3512,
      "Chr": 3513,
      "s to the ": 3514,
      "Islamic ": 3515,
      "round": 3516,
      "woman ": 3517,
      "Taiw": 3518,
      "Astro": 3519,
      "Wal-": 3520,
      "far ": 3521,
      "y, the ": 3522,
      "ing up ": 3523,
      "cons": 3524,
      "red ": 3525,
      "arriv": 3526,
      "streng": 3527,
      "help": 3528,
      "Scient": 3529,
      ".com) ": 3530,
      "Govern": 3531,
      "Tech ": 3532,
      "conn": 3533,
      "bled ": 3534,
      "ning": 3535,
      "heart ": 3536,
      "Talks ": 3537,
      "., ": 3538,
      "Je": 3539,
      "Mobile ": 3540,
      "Yuk": 3541,
      "ize ": 3542,
      "Bri": 3543,
      "s-": 3544,
      "personal ": 3545,
      "MS ": 3546,
      "Ty": 3547,
      "ounce ": 3548,
      "worth ": 3549,
      "all-": 3550,
      "systems ": 3551,
      "San Franc": 3552,
      "cal": 3553,
      "list": 3554,
      "t-": 3555,
      "Enter": 3556,
      "viron": 3557,
      "Treas": 3558,
      "very ": 3559,
      "asketball ": 3560,
      "rights ": 3561,
      "que ": 3562,
      "ode ": 3563,
      "win over ": 3564,
      "forecast ": 3565,
      "clear": 3566,
      "ed their ": 3567,
      "ations.": 3568,
      "promis": 3569,
      "Time ": 3570,
      "Next": 3571,
      "firms ": 3572,
      "present": 3573,
      "group": 3574,
      "set": 3575,
      "re-": 3576,
      "icip": 3577,
      "ionship": 3578,
      "suggest": 3579,
      "chairman ": 3580,
      "TA ": 3581,
      "drive ": 3582,
      "ham": 3583,
      "ient ": 3584,
      "ority ": 3585,
      "allow ": 3586,
      "today.": 3587,
      "WASHINGTON (Reuters) - ": 3588,
      "soldiers ": 3589,
      "ef ": 3590,
      "their": 3591,
      "Mast": 3592,
      "mem": 3593,
      "uel": 3594,
      "stit": 3595,
      "ford ": 3596,
      "ol ": 3597,
      "Ant": 3598,
      "had been ": 3599,
      "Cont": 3600,
      "Sk": 3601,
      "wal": 3602,
      "ed by a ": 3603,
      "government": 3604,
      "airline ": 3605,
      "Hen": 3606,
      "match": 3607,
      "daq": 3608,
      "goal ": 3609,
      "believ": 3610,
      "OL": 3611,
      "astr": 3612,
      "never ": 3613,
      "ender ": 3614,
      "Pan": 3615,
      "Sha": 3616,
      "vic": 3617,
      "wa": 3618,
      ", 6-": 3619,
      "icon": 3620,
      "ran ": 3621,
      "y in ": 3622,
      "sea ": 3623,
      "ands ": 3624,
      "aff ": 3625,
      "grad": 3626,
      "pack": 3627,
      "enge ": 3628,
      "chance ": 3629,
      "ers #39; ": 3630,
      "Chel": 3631,
      " #151; ": 3632,
      "Sur": 3633,
      "claim ": 3634,
      "offering ": 3635,
      "Sudan": 3636,
      "Prices ": 3637,
      "consum": 3638,
      "Span": 3639,
      "ink": 3640,
      "es in the ": 3641,
      "share": 3642,
      "celeb": 3643,
      "Miami ": 3644,
      "Rom": 3645,
      "AGHDAD": 3646,
      "IS ": 3647,
      "ten ": 3648,
      "ingly ": 3649,
      "oll ": 3650,
      "ulation ": 3651,
      "ive-": 3652,
      "ashm": 3653,
      "uge ": 3654,
      "Hait": 3655,
      "ories ": 3656,
      "used to ": 3657,
      "separ": 3658,
      "supply ": 3659,
      "Will ": 3660,
      "vill": 3661,
      "critic": 3662,
      "controvers": 3663,
      "current ": 3664,
      "cy": 3665,
      "found": 3666,
      "Madrid ": 3667,
      "Kashm": 3668,
      "a\\": 3669,
      "s. The ": 3670,
      "decad": 3671,
      "Music ": 3672,
      "Africa ": 3673,
      "holiday ": 3674,
      " D": 3675,
      "OK": 3676,
      "unit ": 3677,
      "ground ": 3678,
      "assin": 3679,
      "burg": 3680,
      "seven": 3681,
      "World": 3682,
      "desktop ": 3683,
      "tournam": 3684,
      "s in the ": 3685,
      "ism": 3686,
      "ahead of ": 3687,
      "9-": 3688,
      "raph": 3689,
      "above ": 3690,
      "train": 3691,
      "analysts ": 3692,
      "21": 3693,
      "Pow": 3694,
      "ful": 3695,
      "ig ": 3696,
      "town ": 3697,
      "ena ": 3698,
      "ing that ": 3699,
      "to take ": 3700,
      "office ": 3701,
      "Exchange ": 3702,
      "Open": 3703,
      "Green ": 3704,
      "name ": 3705,
      "ia #39;s ": 3706,
      "some": 3707,
      " prof": 3708,
      "Port": 3709,
      "omic ": 3710,
      "phon": 3711,
      "flight ": 3712,
      "Airlines ": 3713,
      "break": 3714,
      "Coun": 3715,
      "Tun": 3716,
      "Win ": 3717,
      "risk ": 3718,
      "on't ": 3719,
      " LONDON (Reuters) - ": 3720,
      "rows": 3721,
      "morning ": 3722,
      "Feder": 3723,
      "Law": 3724,
      "ing his ": 3725,
      ". -- ": 3726,
      "ident ": 3727,
      "killed in ": 3728,
      ".O&lt;/A&gt;": 3729,
      "AK": 3730,
      "Rod": 3731,
      "in their ": 3732,
      "road ": 3733,
      "fund ": 3734,
      "print ": 3735,
      "Tokyo ": 3736,
      "on its ": 3737,
      "dam ": 3738,
      "settle": 3739,
      "Systems ": 3740,
      "Be ": 3741,
      "Cel": 3742,
      "Fre": 3743,
      "Los Angel": 3744,
      "ada": 3745,
      "ids ": 3746,
      " (Sports Network) - ": 3747,
      "newsp": 3748,
      "ER ": 3749,
      "Green": 3750,
      "terror ": 3751,
      "vertis": 3752,
      "ict ": 3753,
      "hav": 3754,
      "suicide ": 3755,
      "ump": 3756,
      "large ": 3757,
      "acquis": 3758,
      "discover": 3759,
      ".O ": 3760,
      "Wil": 3761,
      "ips ": 3762,
      "And ": 3763,
      "given ": 3764,
      "s a ": 3765,
      "eck ": 3766,
      "anced ": 3767,
      "Minnes": 3768,
      "Wal-Mar": 3769,
      "want ": 3770,
      "leave ": 3771,
      "it has ": 3772,
      "resol": 3773,
      "sho": 3774,
      "turn": 3775,
      "ortg": 3776,
      "Pakistan": 3777,
      "Mike ": 3778,
      "bi": 3779,
      "poll": 3780,
      "rally ": 3781,
      "thousands of ": 3782,
      "iles ": 3783,
      "worri": 3784,
      "Foreign ": 3785,
      "Delta ": 3786,
      "Service ": 3787,
      "8.": 3788,
      "mult": 3789,
      "swe": 3790,
      "raw": 3791,
      "performance ": 3792,
      " #39;s ": 3793,
      "Dow ": 3794,
      "full ": 3795,
      "hic": 3796,
      "cler": 3797,
      "bus ": 3798,
      "busines": 3799,
      "Laun": 3800,
      "Bang": 3801,
      "ming ": 3802,
      "commerc": 3803,
      "Charg": 3804,
      "Saturday, ": 3805,
      "Greec": 3806,
      "level ": 3807,
      "fuel ": 3808,
      "0-": 3809,
      "Soc": 3810,
      "yn": 3811,
      "suspected ": 3812,
      ".N: Quote, Profile, Research) ": 3813,
      "dit ": 3814,
      "ges ": 3815,
      "er in ": 3816,
      "is expected to ": 3817,
      "rimin": 3818,
      "production ": 3819,
      "Police ": 3820,
      "Ivan ": 3821,
      "But ": 3822,
      "eal": 3823,
      "right": 3824,
      "on\\": 3825,
      "relat": 3826,
      "Sept. ": 3827,
      ". He ": 3828,
      "such as ": 3829,
      "depend": 3830,
      "push": 3831,
      "defic": 3832,
      "Econ": 3833,
      "Ken": 3834,
      "cat": 3835,
      "ity, ": 3836,
      "short ": 3837,
      "Federal Reserve ": 3838,
      "UPDATE ": 3839,
      "card ": 3840,
      "tot": 3841,
      "obe ": 3842,
      "was the ": 3843,
      "mart ": 3844,
      "Detro": 3845,
      "cast ": 3846,
      "compl": 3847,
      "deal": 3848,
      "every ": 3849,
      "helped ": 3850,
      "profits ": 3851,
      "army ": 3852,
      "Adv": 3853,
      "search eng": 3854,
      "Steve ": 3855,
      "boost": 3856,
      "clear ": 3857,
      "youn": 3858,
      "atic ": 3859,
      "raise ": 3860,
      "NEW YORK - ": 3861,
      "based ": 3862,
      "washing": 3863,
      "ald ": 3864,
      "termin": 3865,
      "exc": 3866,
      "The US ": 3867,
      "IR": 3868,
      "won the ": 3869,
      "great ": 3870,
      "Fun": 3871,
      "appar": 3872,
      "tion": 3873,
      ". S": 3874,
      "plom": 3875,
      "ribut": 3876,
      "Council ": 3877,
      "Wal-Mart ": 3878,
      "wil": 3879,
      "ino ": 3880,
      "rise ": 3881,
      "rising ": 3882,
      "likely to ": 3883,
      "Virgin": 3884,
      "Johnson ": 3885,
      "ed to be ": 3886,
      "will not ": 3887,
      "&lt;p&gt;": 3888,
      "&lt;/p&gt;": 3889,
      "region ": 3890,
      "operation ": 3891,
      "tonpost": 3892,
      "ranked ": 3893,
      "squ": 3894,
      "sect": 3895,
      "illions of ": 3896,
      "defin": 3897,
      "twar": 3898,
      "lawsuit ": 3899,
      "through the ": 3900,
      "washingtonpost": 3901,
      "(C": 3902,
      "Jones ": 3903,
      "Ow": 3904,
      "alth": 3905,
      "cho": 3906,
      "years.": 3907,
      "Davis ": 3908,
      "THE ": 3909,
      "Global ": 3910,
      "24": 3911,
      "getting ": 3912,
      "itte": 3913,
      "spending ": 3914,
      "e-mail ": 3915,
      "makes ": 3916,
      "itch ": 3917,
      "competition ": 3918,
      "euro ": 3919,
      "Its ": 3920,
      "Mat": 3921,
      "Coast ": 3922,
      " H": 3923,
      "MW": 3924,
      "ked ": 3925,
      "coach": 3926,
      "school": 3927,
      "history ": 3928,
      "spokesman ": 3929,
      "Nokia ": 3930,
      "reach ": 3931,
      "this year ": 3932,
      "In a ": 3933,
      "Wins ": 3934,
      "Rog": 3935,
      "craft ": 3936,
      "ia": 3937,
      "com ": 3938,
      "ular": 3939,
      "13 ": 3940,
      "Games ": 3941,
      "years, ": 3942,
      "Quar": 3943,
      "troop": 3944,
      "to help ": 3945,
      "autom": 3946,
      "around the ": 3947,
      "selling ": 3948,
      "Bowl ": 3949,
      "AL ": 3950,
      "looks ": 3951,
      " T": 3952,
      "Naj": 3953,
      "ners ": 3954,
      "Report ": 3955,
      "create ": 3956,
      "target ": 3957,
      "Disney ": 3958,
      "a and ": 3959,
      "spect": 3960,
      "web": 3961,
      "buy": 3962,
      "ify ": 3963,
      "starting ": 3964,
      "Patri": 3965,
      "ron ": 3966,
      "ts, ": 3967,
      "adm": 3968,
      "scand": 3969,
      "end of ": 3970,
      ". By ": 3971,
      "across the ": 3972,
      "Janu": 3973,
      "Bur": 3974,
      "Hel": 3975,
      "sil": 3976,
      "vet": 3977,
      "onto ": 3978,
      "ishing ": 3979,
      "lar": 3980,
      "London ": 3981,
      "sam": 3982,
      "makers ": 3983,
      "tegr": 3984,
      "development ": 3985,
      "Central ": 3986,
      "forecast": 3987,
      "Data ": 3988,
      "lim ": 3989,
      "to make ": 3990,
      "ches ": 3991,
      "that would ": 3992,
      "clin": 3993,
      "Singh ": 3994,
      "DVD ": 3995,
      "Nasdaq": 3996,
      "pan": 3997,
      "money ": 3998,
      "Scot": 3999,
      "er's ": 4000,
      "for his ": 4001,
      "e of its ": 4002,
      "oil pric": 4003,
      "undreds of ": 4004,
      "-2": 4005,
      "mail": 4006,
      "ump ": 4007,
      " mill": 4008,
      "Microsoft #39;s ": 4009,
      "Muslim ": 4010,
      "treat": 4011,
      "OT": 4012,
      "up.": 4013,
      "press": 4014,
      "differ": 4015,
      "CAG": 4016,
      "an.": 4017,
      "competit": 4018,
      "ATHENS ": 4019,
      "on his ": 4020,
      "was a ": 4021,
      "delay": 4022,
      "Korean ": 4023,
      "purch": 4024,
      "14 ": 4025,
      "Div": 4026,
      "It #39;s ": 4027,
      "alleged ": 4028,
      "Putin ": 4029,
      "every": 4030,
      "lic": 4031,
      "lin ": 4032,
      "with an ": 4033,
      "illing ": 4034,
      "retail ": 4035,
      "mission": 4036,
      "victory over the ": 4037,
      "Team ": 4038,
      "Karz": 4039,
      " WASHINGTON (Reuters) - ": 4040,
      "22": 4041,
      "Zeal": 4042,
      "track ": 4043,
      "brok": 4044,
      "Windows X": 4045,
      "NewsFact": 4046,
      "fear": 4047,
      "urrican": 4048,
      "Ryder Cup ": 4049,
      "fif": 4050,
      "ief": 4051,
      "powerful ": 4052,
      "s that ": 4053,
      "ing an ": 4054,
      "ellig": 4055,
      ".com - ": 4056,
      "-F": 4057,
      "Net ": 4058,
      "cer ": 4059,
      "ern": 4060,
      "Ford ": 4061,
      "4.": 4062,
      "members ": 4063,
      "Shi": 4064,
      "vehic": 4065,
      " million in ": 4066,
      "investigation ": 4067,
      "Philipp": 4068,
      "rebel ": 4069,
      "Yukos ": 4070,
      "Ale": 4071,
      "anium ": 4072,
      ", as ": 4073,
      "of an ": 4074,
      "Seattle ": 4075,
      "HICAG": 4076,
      "Oh": 4077,
      "lock": 4078,
      "near": 4079,
      "ic p": 4080,
      "Stock ": 4081,
      "offers ": 4082,
      "meas": 4083,
      "United Stat": 4084,
      "Carol": 4085,
      "double ": 4086,
      "ively ": 4087,
      "died ": 4088,
      "Crude ": 4089,
      "Hollyw": 4090,
      "at's ": 4091,
      "is not ": 4092,
      "ed a new ": 4093,
      "ightly ": 4094,
      "Boeing ": 4095,
      "focus ": 4096,
      " J": 4097,
      "Bob": 4098,
      "Ur": 4099,
      "food ": 4100,
      "mass": 4101,
      "ening ": 4102,
      "to buy ": 4103,
      ", the world #39;s ": 4104,
      "New Zeal": 4105,
      "(Reuters) Reuters - The ": 4106,
      "Secur": 4107,
      "color": 4108,
      "Eag": 4109,
      "10-": 4110,
      "withdraw": 4111,
      "Minnesota ": 4112,
      "May": 4113,
      "Pre": 4114,
      "ady ": 4115,
      "said Monday ": 4116,
      "pressure ": 4117,
      "militant ": 4118,
      "Down ": 4119,
      "maj": 4120,
      "Australia #39;s ": 4121,
      "round of the ": 4122,
      "San Francisco ": 4123,
      "9.": 4124,
      "Sour": 4125,
      "plat": 4126,
      "resp": 4127,
      "AFP) - ": 4128,
      "Electron": 4129,
      "months ": 4130,
      "Manag": 4131,
      "Bank": 4132,
      "Form": 4133,
      "available ": 4134,
      "mo": 4135,
      "tech ": 4136,
      "that has ": 4137,
      "ount ": 4138,
      "captain ": 4139,
      "reported a ": 4140,
      "80": 4141,
      "Jun": 4142,
      "Ram": 4143,
      "ax ": 4144,
      "oto ": 4145,
      "it #39;s ": 4146,
      "abilit": 4147,
      "number ": 4148,
      "crisis ": 4149,
      "ded ": 4150,
      "hun": 4151,
      "yle ": 4152,
      "ing in the ": 4153,
      "mobile phone ": 4154,
      "Midd": 4155,
      "adel": 4156,
      "ers have ": 4157,
      "verd": 4158,
      "Beij": 4159,
      "control": 4160,
      "radio ": 4161,
      "ne ": 4162,
      "that they ": 4163,
      "Reg": 4164,
      "uction ": 4165,
      "acquire ": 4166,
      "Supreme ": 4167,
      "touchdown ": 4168,
      "defeat ": 4169,
      "designed to ": 4170,
      "bankruptcy ": 4171,
      "15 ": 4172,
      "100 ": 4173,
      "Grow": 4174,
      "Saf": 4175,
      "role ": 4176,
      " min": 4177,
      "ograph": 4178,
      "23": 4179,
      "when he ": 4180,
      "Palestinians ": 4181,
      "onds ": 4182,
      "res ": 4183,
      "whose ": 4184,
      "declin": 4185,
      "cuts ": 4186,
      "regulators ": 4187,
      "University of ": 4188,
      "adelph": 4189,
      "dy ": 4190,
      "as he ": 4191,
      "Star": 4192,
      "Stew": 4193,
      "rivals ": 4194,
      "teleph": 4195,
      "settle ": 4196,
      "Manchester United ": 4197,
      "Dutch ": 4198,
      "Abu": 4199,
      "ED": 4200,
      "can": 4201,
      "k, ": 4202,
      "push ": 4203,
      "iff": 4204,
      "warning ": 4205,
      "giving ": 4206,
      "sh ": 4207,
      "ander ": 4208,
      "pe=": 4209,
      "John Kerry ": 4210,
      "dang": 4211,
      "as part ": 4212,
      "spr": 4213,
      "US Airways ": 4214,
      "softwar": 4215,
      "Internet": 4216,
      "Paris ": 4217,
      "December ": 4218,
      "Day ": 4219,
      "Er": 4220,
      "iance ": 4221,
      "is, ": 4222,
      "resum": 4223,
      "Report": 4224,
      "ains ": 4225,
      "reveal": 4226,
      "victim": 4227,
      "arch": 4228,
      "olph": 4229,
      "Olympics ": 4230,
      "Association ": 4231,
      "mur": 4232,
      "witnes": 4233,
      "server ": 4234,
      "engine": 4235,
      "crash": 4236,
      "does": 4237,
      " in ": 4238,
      "ware ": 4239,
      "y\\": 4240,
      "and its ": 4241,
      "disappoin": 4242,
      "Ko": 4243,
      "tun": 4244,
      "wel": 4245,
      "e, a ": 4246,
      "within ": 4247,
      "doz": 4248,
      "Again": 4249,
      "bid to ": 4250,
      "e for ": 4251,
      "ity.": 4252,
      "way to ": 4253,
      "during a ": 4254,
      "BS.": 4255,
      "Dod": 4256,
      "Hop": 4257,
      "iting ": 4258,
      "advertis": 4259,
      "die ": 4260,
      "ruling ": 4261,
      "fund": 4262,
      "rall": 4263,
      "itional ": 4264,
      "named ": 4265,
      "Ireland ": 4266,
      "Some ": 4267,
      "ather": 4268,
      "ten": 4269,
      "Arg": 4270,
      "company's ": 4271,
      "ennis ": 4272,
      "Philadelph": 4273,
      "co ": 4274,
      "sanc": 4275,
      "igg": 4276,
      "Shares ": 4277,
      "hours ": 4278,
      "private ": 4279,
      ",\\": 4280,
      "Si": 4281,
      "Woods ": 4282,
      "ture ": 4283,
      "Office ": 4284,
      "ung ": 4285,
      "BE": 4286,
      "assa": 4287,
      "There ": 4288,
      "day, the ": 4289,
      "In the ": 4290,
      "Au": 4291,
      "mach": 4292,
      "ana": 4293,
      "stay ": 4294,
      "break ": 4295,
      "challeng": 4296,
      "Sadr": 4297,
      "children ": 4298,
      "ax": 4299,
      "anian ": 4300,
      "illa ": 4301,
      "rise in ": 4302,
      "going ": 4303,
      "championship ": 4304,
      "Astros ": 4305,
      "Spanish ": 4306,
      "BS.MW": 4307,
      "Den": 4308,
      "atory ": 4309,
      "aging ": 4310,
      "uck": 4311,
      "Org": 4312,
      "Off ": 4313,
      "Tour ": 4314,
      "station ": 4315,
      "Football ": 4316,
      "Firefo": 4317,
      "Nextel ": 4318,
      "iTun": 4319,
      "of their ": 4320,
      "ago, ": 4321,
      "Black": 4322,
      "feat": 4323,
      "ready to ": 4324,
      "costs ": 4325,
      "26": 4326,
      "Back ": 4327,
      "backs ": 4328,
      "reduc": 4329,
      "as they ": 4330,
      "olf ": 4331,
      "becom": 4332,
      "Now ": 4333,
      "Rang": 4334,
      "Rise ": 4335,
      "ster": 4336,
      "rain ": 4337,
      "evidence ": 4338,
      "End ": 4339,
      "Irish ": 4340,
      "Ariz": 4341,
      "Mill": 4342,
      "fresh ": 4343,
      "ed to a ": 4344,
      "Minist": 4345,
      "Election ": 4346,
      "Financ": 4347,
      "Major ": 4348,
      "area ": 4349,
      "E, ": 4350,
      "F ": 4351,
      "nin": 4352,
      "vend": 4353,
      "ements ": 4354,
      "out of the ": 4355,
      " (Reuters) Reuters - ": 4356,
      "executives ": 4357,
      "AS ": 4358,
      "FI": 4359,
      "storage ": 4360,
      "Record ": 4361,
      "Go": 4362,
      "far": 4363,
      "ject": 4364,
      "prime ": 4365,
      "forward ": 4366,
      "offensive ": 4367,
      "signific": 4368,
      "Center ": 4369,
      "detail": 4370,
      ").": 4371,
      "ler ": 4372,
      "comes ": 4373,
      "sav": 4374,
      "turned ": 4375,
      "program": 4376,
      "Tiger ": 4377,
      "hospital ": 4378,
      "27": 4379,
      "To": 4380,
      "dest": 4381,
      "ed from ": 4382,
      "Execut": 4383,
      "indic": 4384,
      "Networks ": 4385,
      "fraud ": 4386,
      "Christm": 4387,
      "Sant": 4388,
      "Blue ": 4389,
      "deal with ": 4390,
      "strik": 4391,
      "visit ": 4392,
      "accounting ": 4393,
      "hy": 4394,
      "to its ": 4395,
      "igr": 4396,
      "in the second ": 4397,
      "(AP) AP - A ": 4398,
      "doub": 4399,
      "nation #39;s ": 4400,
      "1,": 4401,
      "Home ": 4402,
      "RI": 4403,
      "af ": 4404,
      "ials ": 4405,
      "ess to ": 4406,
      "eter ": 4407,
      "confl": 4408,
      "Str": 4409,
      "Station ": 4410,
      "grade ": 4411,
      "ition of ": 4412,
      "China #39;s ": 4413,
      "does ": 4414,
      "Class": 4415,
      "increased ": 4416,
      "iss ": 4417,
      "abl": 4418,
      "ies of ": 4419,
      "diplom": 4420,
      "declar": 4421,
      "teams ": 4422,
      "Despite ": 4423,
      " of ": 4424,
      "We ": 4425,
      "hur": 4426,
      "ies": 4427,
      "along ": 4428,
      "ockey ": 4429,
      "suits ": 4430,
      "said yesterday ": 4431,
      " NEW YORK (Reuters) - U.S. ": 4432,
      "tainment ": 4433,
      "front ": 4434,
      "huge ": 4435,
      "rev": 4436,
      "ature ": 4437,
      "All ": 4438,
      "warn": 4439,
      "according to a ": 4440,
      "Buy ": 4441,
      "Italy ": 4442,
      "Yasser Arafat ": 4443,
      "ortgage ": 4444,
      "environ": 4445,
      "replac": 4446,
      "ed\\": 4447,
      "Eng": 4448,
      "docum": 4449,
      "career ": 4450,
      "Ukra": 4451,
      "Mann": 4452,
      "Spe": 4453,
      "s) Canadian Pres": 4454,
      "Bry": 4455,
      "since the ": 4456,
      "Canadian Press) Canadian Pres": 4457,
      "Michig": 4458,
      "Canadian Press) Canadian Press - ": 4459,
      "AA ": 4460,
      "Riv": 4461,
      "ental ": 4462,
      "avoid ": 4463,
      "can be ": 4464,
      "series of ": 4465,
      "Senate ": 4466,
      "Technology ": 4467,
      "valu": 4468,
      "than-": 4469,
      "try to ": 4470,
      " more ": 4471,
      "Howard ": 4472,
      "PS": 4473,
      "journ": 4474,
      "club ": 4475,
      "Brazil": 4476,
      "Ari": 4477,
      "Saud": 4478,
      "a\" ": 4479,
      "ct ": 4480,
      "presid": 4481,
      "thqu": 4482,
      "ouis ": 4483,
      "urn ": 4484,
      "ienc": 4485,
      ".    ": 4486,
      "amb": 4487,
      "guil": 4488,
      "Arab": 4489,
      "OS ANG": 4490,
      "Greece ": 4491,
      "on #39;t ": 4492,
      "save ": 4493,
      "accus": 4494,
      "terrorist ": 4495,
      "Taiwan ": 4496,
      "OS ANGEL": 4497,
      "OU": 4498,
      "Oak": 4499,
      "PG": 4500,
      "Roy": 4501,
      "mom": 4502,
      "win the ": 4503,
      "ations, ": 4504,
      "finance ": 4505,
      "Asia ": 4506,
      "secutive ": 4507,
      "Champions League ": 4508,
      "Los Angeles ": 4509,
      "han ": 4510,
      "soar": 4511,
      "1, ": 4512,
      "He ": 4513,
      "a t": 4514,
      "Thail": 4515,
      "expects ": 4516,
      " progr": 4517,
      "release of ": 4518,
      "initial ": 4519,
      "500 ": 4520,
      "MC": 4521,
      "Mor": 4522,
      "itting ": 4523,
      "have to ": 4524,
      "Syri": 4525,
      "accused of ": 4526,
      "Virginia ": 4527,
      " K": 4528,
      "AO": 4529,
      "other": 4530,
      "ed in a ": 4531,
      "ement": 4532,
      "medical ": 4533,
      "officials said.": 4534,
      "center ": 4535,
      "ities and ": 4536,
      "Hollywood ": 4537,
      "Fil": 4538,
      "five-": 4539,
      "know ": 4540,
      "search": 4541,
      "invent": 4542,
      "remain ": 4543,
      "winn": 4544,
      "effort to ": 4545,
      "rebels ": 4546,
      "administration ": 4547,
      "5, ": 4548,
      "Gar": 4549,
      "HP ": 4550,
      "ket": 4551,
      "kept ": 4552,
      "anch": 4553,
      "consecutive ": 4554,
      "Corpor": 4555,
      "Dro": 4556,
      "sun": 4557,
      "er. ": 4558,
      "lett": 4559,
      "e, but ": 4560,
      "losing ": 4561,
      "building ": 4562,
      ", 2004 - ": 4563,
      "across ": 4564,
      "Fallujah ": 4565,
      "equipment ": 4566,
      "Supreme Court ": 4567,
      "Us": 4568,
      "oting ": 4569,
      "probe ": 4570,
      "Company ": 4571,
      "North Korea ": 4572,
      "Warner ": 4573,
      "Il": 4574,
      "Lar": 4575,
      "m.": 4576,
      "mit ": 4577,
      "throw": 4578,
      "all the ": 4579,
      "Shares of ": 4580,
      "Detroit ": 4581,
      "Against ": 4582,
      "Bay": 4583,
      "Nik": 4584,
      "Ok": 4585,
      "wr": 4586,
      "immedi": 4587,
      "iff ": 4588,
      "outlook ": 4589,
      "desc": 4590,
      "ires ": 4591,
      "failed to ": 4592,
      "Brown ": 4593,
      "TOKYO (Reuters) - ": 4594,
      "Karzai ": 4595,
      "-source ": 4596,
      "Hus": 4597,
      "at, ": 4598,
      "lawy": 4599,
      " (CBS.MW": 4600,
      " per cent ": 4601,
      "Cardinals ": 4602,
      "Look": 4603,
      "Ten": 4604,
      "phones ": 4605,
      "awa": 4606,
      "others ": 4607,
      "Democratic ": 4608,
      "a barrel ": 4609,
      "weight ": 4610,
      "e, and ": 4611,
      "blast ": 4612,
      "product ": 4613,
      "officials said ": 4614,
      "contract": 4615,
      "Bank of ": 4616,
      "Motor": 4617,
      "Defense ": 4618,
      "Ariel ": 4619,
      "FA ": 4620,
      "OPE": 4621,
      "aftern": 4622,
      "markets ": 4623,
      "Black ": 4624,
      "experts ": 4625,
      "-up ": 4626,
      "James ": 4627,
      "ith ": 4628,
      "stop": 4629,
      "surpris": 4630,
      "baseball ": 4631,
      "ezuel": 4632,
      "Venezuel": 4633,
      "New Zealand ": 4634,
      "Jack": 4635,
      "kill ": 4636,
      "country's ": 4637,
      "later ": 4638,
      "talks with ": 4639,
      "special ": 4640,
      "tax": 4641,
      "commercial ": 4642,
      " on ": 4643,
      "Jav": 4644,
      "cir": 4645,
      "gers ": 4646,
      "ia.": 4647,
      "plant ": 4648,
      "block": 4649,
      "debt ": 4650,
      "Stewart ": 4651,
      "Sans ": 4652,
      "ieve ": 4653,
      "holding ": 4654,
      "showed ": 4655,
      "hostile ": 4656,
      "AMD ": 4657,
      "average ": 4658,
      "bid": 4659,
      "pen": 4660,
      "third quarter ": 4661,
      "Swed": 4662,
      "gold medal ": 4663,
      "liament ": 4664,
      "Chelsea ": 4665,
      "AU": 4666,
      "Host": 4667,
      "Sum": 4668,
      "hopes ": 4669,
      "harra": 4670,
      "elligence ": 4671,
      "e the ": 4672,
      "inks ": 4673,
      "a year ": 4674,
      "tog": 4675,
      "AP) -- ": 4676,
      "fix": 4677,
      "ALL": 4678,
      "efforts to ": 4679,
      "cleric ": 4680,
      "care ": 4681,
      "to\\": 4682,
      "ansas ": 4683,
      "nuclear": 4684,
      "body ": 4685,
      "wat": 4686,
      "maz": 4687,
      "brought ": 4688,
      "futures ": 4689,
      "W. ": 4690,
      "today, ": 4691,
      "ashes ": 4692,
      "division ": 4693,
      "iconduc": 4694,
      "file ": 4695,
      "met ": 4696,
      "send ": 4697,
      "While ": 4698,
      "develop ": 4699,
      "Big ": 4700,
      "At least ": 4701,
      "Atlanta ": 4702,
      "Powell ": 4703,
      "17 ": 4704,
      "integr": 4705,
      "has agreed to ": 4706,
      "working ": 4707,
      "statement ": 4708,
      "retailer ": 4709,
      "Grand Pri": 4710,
      ",hel": 4711,
      "It's ": 4712,
      "Jef": 4713,
      "Sym": 4714,
      "basketball ": 4715,
      "euro": 4716,
      "ida": 4717,
      "pow": 4718,
      "real ": 4719,
      "ica\" ": 4720,
      "death": 4721,
      "&lt;FON": 4722,
      "&lt;B&gt;": 4723,
      "T fac": 4724,
      "Ivory ": 4725,
      "Singap": 4726,
      "confidence ": 4727,
      "sharehold": 4728,
      "ana,": 4729,
      "#6666": 4730,
      ",ar": 4731,
      "OD": 4732,
      "TO ": 4733,
      "fle": 4734,
      "They ": 4735,
      "if,ar": 4736,
      "ances ": 4737,
      "became ": 4738,
      "=\"#6666": 4739,
      "66\"&gt;": 4740,
      "Serif,ar": 4741,
      "doubl": 4742,
      "rocket ": 4743,
      "ial,hel": 4744,
      "size=\"": 4745,
      "e=\"verd": 4746,
      "civil": 4747,
      "MS Sans ": 4748,
      "vetica\" ": 4749,
      "color=\"#6666": 4750,
      "&lt;FONT fac": 4751,
      "ana,MS Sans ": 4752,
      "Serif,arial,hel": 4753,
      "size=\"-2": 4754,
      "e=\"verdana,MS Sans ": 4755,
      "vetica\" size=\"-2": 4756,
      "color=\"#666666\"&gt;": 4757,
      "&lt;FONT face=\"verdana,MS Sans ": 4758,
      "Serif,arial,helvetica\" size=\"-2": 4759,
      "&lt;FONT face=\"verdana,MS Sans Serif,arial,helvetica\" size=\"-2": 4760,
      "16 ": 4761,
      "40": 4762,
      "Gold": 4763,
      "Rul": 4764,
      "ison ": 4765,
      "charge ": 4766,
      "less than ": 4767,
      "Ltd. ": 4768,
      "Baseball ": 4769,
      "color=\"#666666\"&gt;&lt;B&gt;": 4770,
      "Dolph": 4771,
      "ions, ": 4772,
      "condit": 4773,
      "St. L": 4774,
      "threw ": 4775,
      "democ": 4776,
      "debate ": 4777,
      "total ": 4778,
      "25 ": 4779,
      "BAGHDAD": 4780,
      "sburg": 4781,
      "think ": 4782,
      "ark ": 4783,
      "Thre": 4784,
      "oss": 4785,
      "eded ": 4786,
      "surviv": 4787,
      "explod": 4788,
      "night, ": 4789,
      "Media ": 4790,
      "BR": 4791,
      "Fla": 4792,
      "Fann": 4793,
      "bn ": 4794,
      "hand ": 4795,
      "arm ": 4796,
      "ova ": 4797,
      "ift ": 4798,
      "Viox": 4799,
      "OS ANGELES ": 4800,
      "Ter": 4801,
      "als.": 4802,
      "season, ": 4803,
      "Georg": 4804,
      "Terr": 4805,
      "with its ": 4806,
      "plane ": 4807,
      "weekend ": 4808,
      "small": 4809,
      "Cy": 4810,
      "Dig": 4811,
      "Long": 4812,
      "ings.": 4813,
      "itor": 4814,
      "ago": 4815,
      "from": 4816,
      "out the ": 4817,
      "expand": 4818,
      "counter": 4819,
      "faces ": 4820,
      "campaign": 4821,
      "Scientists ": 4822,
      "(Canadian Press) Canadian Press - ": 4823,
      "2, ": 4824,
      "CAR": 4825,
      "Hom": 4826,
      "host ": 4827,
      "conc": 4828,
      "Enron ": 4829,
      "profit": 4830,
      "family ": 4831,
      "Toronto ": 4832,
      "Argent": 4833,
      "IL": 4834,
      "Jam": 4835,
      "Susp": 4836,
      "War ": 4837,
      "staff ": 4838,
      "omin": 4839,
      "from its ": 4840,
      "bud": 4841,
      "slightly ": 4842,
      "important ": 4843,
      "Gra": 4844,
      "awar": 4845,
      " Sec": 4846,
      "Musharra": 4847,
      "subsid": 4848,
      "Server ": 4849,
      "explosion ": 4850,
      "heavy ": 4851,
      ".O target=/stocks/quickinfo/fullquote\"&gt;": 4852,
      "Four ": 4853,
      "PM ": 4854,
      "rust ": 4855,
      "water ": 4856,
      "these ": 4857,
      "ORON": 4858,
      "Conn": 4859,
      "Moz": 4860,
      "Brazil ": 4861,
      "Merck ": 4862,
      "Formula ": 4863,
      "Deb": 4864,
      "weak": 4865,
      "posted a ": 4866,
      "countries ": 4867,
      "5 million ": 4868,
      "Nintend": 4869,
      "Pay": 4870,
      "Targ": 4871,
      "oot ": 4872,
      "said Tuesday ": 4873,
      "uck ": 4874,
      "foot": 4875,
      "dram": 4876,
      "GH": 4877,
      "eth": 4878,
      "var": 4879,
      "ing their ": 4880,
      "aged ": 4881,
      "spir": 4882,
      "his first ": 4883,
      "merger ": 4884,
      "access ": 4885,
      "eban": 4886,
      "industri": 4887,
      "six-": 4888,
      "spacec": 4889,
      "28": 4890,
      "Fall ": 4891,
      "ts.": 4892,
      "orney ": 4893,
      "ed. ": 4894,
      "aps ": 4895,
      "Star ": 4896,
      "s of a ": 4897,
      "struck ": 4898,
      "single ": 4899,
      "Philadelphia ": 4900,
      "tem": 4901,
      "ing. ": 4902,
      "Andre": 4903,
      "operations ": 4904,
      "Greek ": 4905,
      "striker ": 4906,
      "Hamas ": 4907,
      "NHL ": 4908,
      "color=\"#666666\"&gt;&lt;B&gt;-": 4909,
      "on Tuesday, ": 4910,
      "illegal ": 4911,
      "event ": 4912,
      "acked ": 4913,
      "device ": 4914,
      "lead the ": 4915,
      "version of ": 4916,
      "seeks ": 4917,
      "planned ": 4918,
      "gives ": 4919,
      "U.S.": 4920,
      "bid for ": 4921,
      "generation ": 4922,
      "sources ": 4923,
      "ek": 4924,
      "e. The ": 4925,
      "hon": 4926,
      "just": 4927,
      "Thom": 4928,
      "ention ": 4929,
      "assist": 4930,
      "highest ": 4931,
      "bring ": 4932,
      "fully ": 4933,
      "than-expected ": 4934,
      "Saudi ": 4935,
      "Mass": 4936,
      "cover": 4937,
      "pace ": 4938,
      "saw ": 4939,
      "and, ": 4940,
      "Olympic": 4941,
      "director ": 4942,
      "did not ": 4943,
      "weapons ": 4944,
      "Tony Blair ": 4945,
      "29": 4946,
      "24 ": 4947,
      "bed ": 4948,
      "anim": 4949,
      " (AFP) - ": 4950,
      "ugg": 4951,
      "Blu": 4952,
      "concern ": 4953,
      ",\" ": 4954,
      "crimin": 4955,
      "ra ": 4956,
      "esh ": 4957,
      "appeal ": 4958,
      "beaten ": 4959,
      "Cing": 4960,
      "Fed ": 4961,
      "hous": 4962,
      "result ": 4963,
      "A new ": 4964,
      "spot ": 4965,
      "finals ": 4966,
      "winter ": 4967,
      "What ": 4968,
      "nation's ": 4969,
      "Nikke": 4970,
      "Bonds ": 4971,
      "Dall": 4972,
      "HP": 4973,
      "yard ": 4974,
      "ised ": 4975,
      "The": 4976,
      "ts of ": 4977,
      "Force ": 4978,
      "drop ": 4979,
      "Congress ": 4980,
      "challenge ": 4981,
      "Malay": 4982,
      "Explor": 4983,
      "Financial ": 4984,
      "bill ": 4985,
      "de ": 4986,
      ", an ": 4987,
      ", Iraq": 4988,
      "acy ": 4989,
      "agenc": 4990,
      "said Thursday ": 4991,
      "up the ": 4992,
      "box": 4993,
      "next year ": 4994,
      "Northern ": 4995,
      "guard ": 4996,
      "Kashmir ": 4997,
      "Nikkei ": 4998,
      "Y ": 4999,
      "it's ": 5000,
      "roy": 5001,
      "eful ": 5002,
      "were killed ": 5003,
      "Prot": 5004,
      "closed ": 5005,
      "Turkey ": 5006,
      "bably ": 5007,
      "-to-": 5008,
      "Call": 5009,
      "was": 5010,
      "end of the ": 5011,
      "Ext": 5012,
      "Cla": 5013,
      "Tos": 5014,
      "cell": 5015,
      "gir": 5016,
      "ring": 5017,
      "- The ": 5018,
      "em ": 5019,
      " million": 5020,
      "ember, ": 5021,
      "posit": 5022,
      "should be ": 5023,
      "friend": 5024,
      "PGA ": 5025,
      "Mov": 5026,
      "bad ": 5027,
      "ces ": 5028,
      "well": 5029,
      "stage ": 5030,
      "talk ": 5031,
      "terrorism ": 5032,
      "roll": 5033,
      " (CP) - ": 5034,
      "their p": 5035,
      "tournament ": 5036,
      "fifth ": 5037,
      "million ": 5038,
      "vow": 5039,
      "lef": 5040,
      "ada ": 5041,
      "issue ": 5042,
      "AH": 5043,
      "hundreds of ": 5044,
      "rout": 5045,
      "independ": 5046,
      "char": 5047,
      "conduc": 5048,
      "years of ": 5049,
      "s to be ": 5050,
      "ang ": 5051,
      "Mars ": 5052,
      "AT amp;": 5053,
      "joint ": 5054,
      "Masters ": 5055,
      "ittee ": 5056,
      "Kill": 5057,
      "ko ": 5058,
      "seek ": 5059,
      "said Wednesday ": 5060,
      "maker of ": 5061,
      "interest": 5062,
      "executiv": 5063,
      "No. 1 ": 5064,
      "Stores ": 5065,
      "researchers ": 5066,
      "survey ": 5067,
      "Ohio ": 5068,
      "Firefox ": 5069,
      "Michigan ": 5070,
      "ll ": 5071,
      "on Monday, ": 5072,
      "Co.": 5073,
      "Novell ": 5074,
      "ople, ": 5075,
      "Washington": 5076,
      "Apple Computer ": 5077,
      "effect": 5078,
      "says.": 5079,
      "Mosc": 5080,
      "settlement ": 5081,
      "Amaz": 5082,
      "Ky": 5083,
      "Kerr": 5084,
      "ti": 5085,
      "helps ": 5086,
      "ible ": 5087,
      "open-source ": 5088,
      "re D": 5089,
      "vention ": 5090,
      "streak ": 5091,
      "NYSE": 5092,
      "travel ": 5093,
      "bol": 5094,
      "kne": 5095,
      "ures": 5096,
      "ali": 5097,
      "at its ": 5098,
      "announce ": 5099,
      "Conference ": 5100,
      "Mac ": 5101,
      "Donald ": 5102,
      "fighting ": 5103,
      "Republican ": 5104,
      "60": 5105,
      "CL": 5106,
      "Her": 5107,
      "Low": 5108,
      "Liver": 5109,
      "ing\\": 5110,
      "real": 5111,
      "read ": 5112,
      "on Friday, ": 5113,
      "peri": 5114,
      "fuel": 5115,
      "responsib": 5116,
      "sports ": 5117,
      "techn": 5118,
      "ed into ": 5119,
      "ask ": 5120,
      "recently ": 5121,
      "phot": 5122,
      "August": 5123,
      "Notre D": 5124,
      "controversial ": 5125,
      "Carolina ": 5126,
      "Clevel": 5127,
      "fears ": 5128,
      "in-": 5129,
      "consol": 5130,
      "prosecut": 5131,
      "O #39;": 5132,
      "Agency ": 5133,
      "Okla": 5134,
      " TOKYO (Reuters) - ": 5135,
      "Cut ": 5136,
      "itt ": 5137,
      "imir ": 5138,
      "debut ": 5139,
      "comput": 5140,
      "domest": 5141,
      "interest rates ": 5142,
      "Veriz": 5143,
      "Najaf ": 5144,
      "Cle": 5145,
      "GO": 5146,
      "Sprint ": 5147,
      "iec": 5148,
      "en.": 5149,
      "the company ": 5150,
      "room ": 5151,
      "is in ": 5152,
      "sharply ": 5153,
      "publish": 5154,
      "pled": 5155,
      "rowser ": 5156,
      "iTunes ": 5157,
      "Can ": 5158,
      "Set ": 5159,
      "Vlad": 5160,
      "sor": 5161,
      "tack": 5162,
      "to get ": 5163,
      "update ": 5164,
      "slow ": 5165,
      "decline ": 5166,
      "Devel": 5167,
      "ET": 5168,
      "NC": 5169,
      "hurt ": 5170,
      "lay": 5171,
      "toll ": 5172,
      "iny ": 5173,
      "ined ": 5174,
      "stand ": 5175,
      "on Thursday, ": 5176,
      "The dollar ": 5177,
      "spent ": 5178,
      "\\$10": 5179,
      "e of a ": 5180,
      "playoff ": 5181,
      "back to ": 5182,
      "north ": 5183,
      "won #39;t ": 5184,
      "Gets ": 5185,
      "Kansas ": 5186,
      "gain ": 5187,
      "pun": 5188,
      "inh": 5189,
      "orig": 5190,
      "as investors ": 5191,
      "determin": 5192,
      "said he ": 5193,
      "West Bank ": 5194,
      "collap": 5195,
      "Chair": 5196,
      "sens": 5197,
      "omor": 5198,
      "le-": 5199,
      "ado ": 5200,
      "improve ": 5201,
      "sees ": 5202,
      "over a ": 5203,
      "credit ": 5204,
      "Health ": 5205,
      "Boston Red Sox ": 5206,
      "About ": 5207,
      "problems ": 5208,
      "Celt": 5209,
      "newspaper ": 5210,
      "Roger ": 5211,
      "(T": 5212,
      "Lu": 5213,
      "Son": 5214,
      "ier": 5215,
      "inste": 5216,
      "istic ": 5217,
      "going to ": 5218,
      "Muslim": 5219,
      "subsc": 5220,
      "version of its ": 5221,
      "dispute ": 5222,
      "Pakistani ": 5223,
      "Banglad": 5224,
      "Christmas ": 5225,
      "3, ": 5226,
      "pick": 5227,
      "paid ": 5228,
      "ulner": 5229,
      "porters ": 5230,
      "Arm": 5231,
      "predict": 5232,
      "below ": 5233,
      "telecom": 5234,
      "points ": 5235,
      "refug": 5236,
      "1) ": 5237,
      "Get ": 5238,
      "OM": 5239,
      "ati ": 5240,
      "worst ": 5241,
      "ong K": 5242,
      "when it ": 5243,
      "soccer ": 5244,
      "Earth ": 5245,
      "decision to ": 5246,
      "potential ": 5247,
      "Government ": 5248,
      "Haiti ": 5249,
      "Patriots ": 5250,
      "Nintendo ": 5251,
      "O, ": 5252,
      "ram": 5253,
      "ec ": 5254,
      "uses ": 5255,
      "abin": 5256,
      "depart": 5257,
      " me": 5258,
      " may ": 5259,
      "lift ": 5260,
      "iscal ": 5261,
      "looking ": 5262,
      "strong&gt;": 5263,
      "Labor ": 5264,
      "previous ": 5265,
      "FOR": 5266,
      "Mag": 5267,
      "Tom ": 5268,
      "othing ": 5269,
      "s are ": 5270,
      "legis": 5271,
      "eks ": 5272,
      "say.": 5273,
      "it would ": 5274,
      "blow ": 5275,
      "news - ": 5276,
      "crash ": 5277,
      "self": 5278,
      "Higher ": 5279,
      "FD": 5280,
      "augh": 5281,
      "uel ": 5282,
      "certain ": 5283,
      "armed ": 5284,
      "Peace ": 5285,
      "storm ": 5286,
      "proposed ": 5287,
      "safety ": 5288,
      "shopping ": 5289,
      "Vladimir ": 5290,
      "Nob": 5291,
      "cros": 5292,
      "o's ": 5293,
      "spam ": 5294,
      "anticip": 5295,
      "Consumer ": 5296,
      "tests ": 5297,
      "Saddam ": 5298,
      "candidate ": 5299,
      "journal": 5300,
      "Cra": 5301,
      "Year ": 5302,
      "your": 5303,
      "e-mail": 5304,
      "aircraft ": 5305,
      "Grou": 5306,
      "Club": 5307,
      "rupt ": 5308,
      "added ": 5309,
      "rize ": 5310,
      "attempt to ": 5311,
      "George W. ": 5312,
      "Drug ": 5313,
      "Liverp": 5314,
      "Bro": 5315,
      "Mur": 5316,
      "kick": 5317,
      "but the ": 5318,
      "Produc": 5319,
      "Championship": 5320,
      "Japan #39;s ": 5321,
      "Aug. ": 5322,
      "application ": 5323,
      "A p": 5324,
      "akers ": 5325,
      "Chang": 5326,
      "Iraq's ": 5327,
      "group of ": 5328,
      "internet ": 5329,
      "return to ": 5330,
      "download": 5331,
      "uttle ": 5332,
      "assault ": 5333,
      "18 ": 5334,
      "Jason ": 5335,
      "th.": 5336,
      "ago.": 5337,
      "Ex-": 5338,
      "winner ": 5339,
      "if the ": 5340,
      "Park ": 5341,
      "Earnings ": 5342,
      "weapon": 5343,
      "Qaed": 5344,
      "Eagles ": 5345,
      "Fannie ": 5346,
      "Ben": 5347,
      "crip": 5348,
      "thought ": 5349,
      "on to ": 5350,
      "on Sunday.": 5351,
      "that a ": 5352,
      "Stat": 5353,
      "rich ": 5354,
      "playing ": 5355,
      "Wi-F": 5356,
      "Sox": 5357,
      "process ": 5358,
      "himself ": 5359,
      "Party ": 5360,
      "Justice ": 5361,
      "Source ": 5362,
      "Power ": 5363,
      "VER": 5364,
      "er than ": 5365,
      "itor ": 5366,
      "ies and ": 5367,
      "secure ": 5368,
      "anned ": 5369,
      "Al-": 5370,
      "victor": 5371,
      "protect ": 5372,
      "Middle ": 5373,
      "iconductor ": 5374,
      "St. Louis ": 5375,
      "Man ": 5376,
      "bow": 5377,
      "on Wednesday, ": 5378,
      "earthqu": 5379,
      "wi ": 5380,
      "result": 5381,
      "Chil": 5382,
      "have a ": 5383,
      "iracy ": 5384,
      "Bir": 5385,
      "Hong K": 5386,
      "Leban": 5387,
      "Video ": 5388,
      "pair ": 5389,
      ", has ": 5390,
      "a to ": 5391,
      "and his ": 5392,
      "shows ": 5393,
      "Indonesian ": 5394,
      "Strip ": 5395,
      "stake in ": 5396,
      "Greensp": 5397,
      "Oakland ": 5398,
      "Dre": 5399,
      "IA ": 5400,
      "NN": 5401,
      "Old ": 5402,
      "aur": 5403,
      "lose ": 5404,
      "ords ": 5405,
      ") has ": 5406,
      "utes ": 5407,
      "Stand": 5408,
      "month.": 5409,
      "low-": 5410,
      "Martin ": 5411,
      "Virgin ": 5412,
      "electronics ": 5413,
      "Arizona ": 5414,
      "AOL ": 5415,
      "Musharraf ": 5416,
      "Wi-Fi ": 5417,
      " The ": 5418,
      "ari ": 5419,
      "Market ": 5420,
      "serious ": 5421,
      "Agre": 5422,
      "Lou": 5423,
      "ed yesterday ": 5424,
      "for an ": 5425,
      "rav": 5426,
      "oppon": 5427,
      "prog": 5428,
      "launches ": 5429,
      "question": 5430,
      "Sun Micro": 5431,
      "Pitt": 5432,
      "light": 5433,
      "support": 5434,
      "said on Wednesday.": 5435,
      "broadband ": 5436,
      "Radio ": 5437,
      "fielder ": 5438,
      "Ey": 5439,
      "Sem": 5440,
      "fiscal ": 5441,
      "rush": 5442,
      "refer": 5443,
      "olf": 5444,
      "se, ": 5445,
      "Color": 5446,
      "Motor ": 5447,
      "Ju": 5448,
      "Ku": 5449,
      "Of ": 5450,
      "jects ": 5451,
      "inal ": 5452,
      "Japan's ": 5453,
      "Gun": 5454,
      "Kaz": 5455,
      "Lat": 5456,
      " p.": 5457,
      "ies to ": 5458,
      "-- The ": 5459,
      "phy ": 5460,
      "dismiss": 5461,
      "they were ": 5462,
      "Colomb": 5463,
      "400": 5464,
      "Jets ": 5465,
      "ure of ": 5466,
      "Industr": 5467,
      "kills ": 5468,
      "SEC ": 5469,
      "Desktop ": 5470,
      "Mexico ": 5471,
      "sanctions ": 5472,
      "Chairman ": 5473,
      "K ": 5474,
      "Vol": 5475,
      "jun": 5476,
      "zz": 5477,
      "th, ": 5478,
      "attr": 5479,
      "ises ": 5480,
      "proper": 5481,
      "theast ": 5482,
      "Trans": 5483,
      "athlet": 5484,
      "Week ": 5485,
      "Egypt ": 5486,
      "Sams": 5487,
      "Thailand ": 5488,
      "Toshib": 5489,
      "-Pack": 5490,
      "NAT": 5491,
      "jud": 5492,
      "for their ": 5493,
      "That ": 5494,
      "spot": 5495,
      "phoon ": 5496,
      "servers ": 5497,
      "box ": 5498,
      "Britain": 5499,
      "said on Tuesday.": 5500,
      " billion in ": 5501,
      "Gul": 5502,
      "a. ": 5503,
      "imm": 5504,
      "Southern ": 5505,
      "traff": 5506,
      "2-0 ": 5507,
      "Prime Minister Ariel ": 5508,
      "market.": 5509,
      "citing ": 5510,
      "session ": 5511,
      "lett-Pack": 5512,
      "together ": 5513,
      "Broad": 5514,
      "CR": 5515,
      "Pent": 5516,
      "eed": 5517,
      "tow": 5518,
      "ides ": 5519,
      "probably ": 5520,
      "link": 5521,
      "positive ": 5522,
      "World Series ": 5523,
      "calls ": 5524,
      "Securities and ": 5525,
      "spacecraft ": 5526,
      "AW": 5527,
      "Die": 5528,
      "Hum": 5529,
      "Tim ": 5530,
      "TORON": 5531,
      "den ": 5532,
      "adop": 5533,
      "et, ": 5534,
      "oping ": 5535,
      "beating ": 5536,
      "ate the ": 5537,
      "Lead ": 5538,
      "veter": 5539,
      "search engine ": 5540,
      "Organiz": 5541,
      "Ever": 5542,
      "LC": 5543,
      "Zim": 5544,
      "enrich": 5545,
      "et.": 5546,
      "shr": 5547,
      "Are ": 5548,
      " percent in ": 5549,
      "consider ": 5550,
      "arrested ": 5551,
      "watchdog": 5552,
      "Pacific ": 5553,
      "Singapore ": 5554,
      "Los": 5555,
      "Rem": 5556,
      "tough ": 5557,
      "wait": 5558,
      "represent": 5559,
      "stad": 5560,
      "eline ": 5561,
      "and wound": 5562,
      "impos": 5563,
      "optim": 5564,
      "why ": 5565,
      "clus": 5566,
      "maker, ": 5567,
      "wards ": 5568,
      "Research ": 5569,
      "Plan ": 5570,
      "fire": 5571,
      "Fiel": 5572,
      "bird ": 5573,
      "Hewlett-Pack": 5574,
      "Hits ": 5575,
      "core ": 5576,
      "member ": 5577,
      "satellite ": 5578,
      "eman ": 5579,
      "convict": 5580,
      "enterprise ": 5581,
      "civil ": 5582,
      ".O&lt;/A&gt; ": 5583,
      "Rodd": 5584,
      "Division ": 5585,
      "AT amp;T ": 5586,
      "Oklahom": 5587,
      "batter": 5588,
      "sending ": 5589,
      "al to ": 5590,
      "earning": 5591,
      "Into ": 5592,
      "with his ": 5593,
      "A (Reuters) - ": 5594,
      "Another ": 5595,
      "end the ": 5596,
      "Energy ": 5597,
      "sales of ": 5598,
      "issues ": 5599,
      "questions ": 5600,
      "troubled ": 5601,
      "Hot": 5602,
      "Just ": 5603,
      "Nep": 5604,
      "Wom": 5605,
      "hurrican": 5606,
      "prec": 5607,
      "rig": 5608,
      "spl": 5609,
      "ened ": 5610,
      "a l": 5611,
      "extr": 5612,
      "class": 5613,
      "neigh": 5614,
      "ers' ": 5615,
      "Gaza Strip ": 5616,
      "Times ": 5617,
      "impact ": 5618,
      "Life ": 5619,
      "Sudanese ": 5620,
      "consumers ": 5621,
      "35": 5622,
      "Gat": 5623,
      "inger ": 5624,
      "fired ": 5625,
      "laz": 5626,
      "ing to the ": 5627,
      "cricket ": 5628,
      "Egypt": 5629,
      "Stadium ": 5630,
      "Executive ": 5631,
      "Car ": 5632,
      "SAN FRANCISCO": 5633,
      "ging ": 5634,
      "iel": 5635,
      "mar ": 5636,
      "millions of ": 5637,
      "tly ": 5638,
      "quir": 5639,
      "protest ": 5640,
      "buying ": 5641,
      "block ": 5642,
      " SP": 5643,
      "not to ": 5644,
      "ercent ": 5645,
      "cruc": 5646,
      "answ": 5647,
      "some of the ": 5648,
      "policy ": 5649,
      " points and ": 5650,
      "Treasury ": 5651,
      "Report: ": 5652,
      "Zimbab": 5653,
      "ACE": 5654,
      "Bid ": 5655,
      "moun": 5656,
      "Palm": 5657,
      "commun": 5658,
      "build": 5659,
      "built ": 5660,
      "Oil Prices ": 5661,
      "Linux": 5662,
      "deadly ": 5663,
      "yware ": 5664,
      "operating system": 5665,
      "inflation ": 5666,
      "Kills ": 5667,
      "U ": 5668,
      "vs. ": 5669,
      "beat the ": 5670,
      " man": 5671,
      "expans": 5672,
      "they are ": 5673,
      "said on Friday.": 5674,
      "fourth-": 5675,
      "stores ": 5676,
      "broke ": 5677,
      "injury ": 5678,
      "raised ": 5679,
      "Hurricane Ivan ": 5680,
      "500": 5681,
      "Beck": 5682,
      "West": 5683,
      "did": 5684,
      "fic": 5685,
      "electr": 5686,
      "acts ": 5687,
      "ri L": 5688,
      "ultim": 5689,
      "sale ": 5690,
      "Indian": 5691,
      "course ": 5692,
      "Stadium": 5693,
      "renew": 5694,
      "Cleveland ": 5695,
      "Securities and Exchange ": 5696,
      "40 ": 5697,
      "Western ": 5698,
      "an's ": 5699,
      "onstr": 5700,
      "a day ": 5701,
      "Chall": 5702,
      "may have ": 5703,
      "Carl": 5704,
      "rules ": 5705,
      "promp": 5706,
      "venture ": 5707,
      "ixed ": 5708,
      "killing at least ": 5709,
      "different ": 5710,
      "Growth ": 5711,
      " (CBS.MW) -- ": 5712,
      "X ": 5713,
      "Work": 5714,
      "creat": 5715,
      "Vik": 5716,
      "NASCAR": 5717,
      "knock": 5718,
      "prison": 5719,
      "OSCO": 5720,
      "groups ": 5721,
      "computers ": 5722,
      "Tennes": 5723,
      "Cingular ": 5724,
      "Malays": 5725,
      "Notre Dame ": 5726,
      "ri Lank": 5727,
      "-year ": 5728,
      "Mets ": 5729,
      "edge ": 5730,
      "antit": 5731,
      "new p": 5732,
      "sharing ": 5733,
      "Iraq #39;s ": 5734,
      "Angels ": 5735,
      "Bern": 5736,
      "): ": 5737,
      "C. ": 5738,
      "MB": 5739,
      "ht": 5740,
      "arian ": 5741,
      "day. The ": 5742,
      "porter": 5743,
      "rick ": 5744,
      "movie ": 5745,
      "men #39;s ": 5746,
      "critical ": 5747,
      "download ": 5748,
      "how": 5749,
      "nar": 5750,
      "pers ": 5751,
      "rom": 5752,
      "als, ": 5753,
      "etary ": 5754,
      "that its ": 5755,
      "cos ": 5756,
      "themsel": 5757,
      "Administ": 5758,
      "claimed ": 5759,
      "insurgents ": 5760,
      "Verizon ": 5761,
      "Cost": 5762,
      "ION": 5763,
      "itself ": 5764,
      "St. ": 5765,
      "Still ": 5766,
      "\\$8": 5767,
      "Colin ": 5768,
      "Formula One ": 5769,
      "IP ": 5770,
      "or, ": 5771,
      "ret ": 5772,
      "s...": 5773,
      "weather ": 5774,
      "angu": 5775,
      "merce ": 5776,
      "time, ": 5777,
      " SAN FRANCISCO": 5778,
      "    ": 5779,
      ", but the ": 5780,
      "hit a ": 5781,
      "success ": 5782,
      "Fannie Ma": 5783,
      "oy ": 5784,
      "vulner": 5785,
      "uranium ": 5786,
      "about a ": 5787,
      "missile ": 5788,
      "Coach ": 5789,
      "intelligence ": 5790,
      "struction ": 5791,
      "memory ": 5792,
      "Bryant ": 5793,
      "Dolphins ": 5794,
      "70": 5795,
      "D, ": 5796,
      "Sri Lank": 5797,
      "pped ": 5798,
      "onz": 5799,
      "express": 5800,
      "content ": 5801,
      "ification ": 5802,
      "Gulf ": 5803,
      "Met": 5804,
      "Over": 5805,
      "Uta": 5806,
      "yst ": 5807,
      "in, ": 5808,
      "Thir": 5809,
      "order": 5810,
      "South Africa ": 5811,
      "virt": 5812,
      ", 2004, ": 5813,
      "Steel": 5814,
      "Nigeria ": 5815,
      "Richard ": 5816,
      "sentenc": 5817,
      "Ukraine ": 5818,
      "Utah ": 5819,
      "Camp": 5820,
      "Disc": 5821,
      "Test": 5822,
      "led by ": 5823,
      "sex": 5824,
      "song": 5825,
      "erous ": 5826,
      "on Saturday.": 5827,
      "island ": 5828,
      " Serv": 5829,
      "aster ": 5830,
      "announcement ": 5831,
      "trip ": 5832,
      "reportedly ": 5833,
      "college ": 5834,
      "prison ": 5835,
      "favor": 5836,
      "Baltim": 5837,
      "! ": 5838,
      "21 ": 5839,
      "Aut": 5840,
      "ahe": 5841,
      "log": 5842,
      "oud ": 5843,
      "Marsh ": 5844,
      "Alla": 5845,
      "says the ": 5846,
      "signed a ": 5847,
      "Super": 5848,
      "resolution ": 5849,
      "telephone ": 5850,
      "Ivory Coast ": 5851,
      "NL ": 5852,
      "as, ": 5853,
      ". It ": 5854,
      "iring ": 5855,
      "sue ": 5856,
      "ained ": 5857,
      "orders ": 5858,
      "flag": 5859,
      "trib": 5860,
      "company.": 5861,
      "US-": 5862,
      "Phill": 5863,
      "made a ": 5864,
      "English ": 5865,
      "discuss": 5866,
      "gains ": 5867,
      "having ": 5868,
      "ce": 5869,
      "cle": 5870,
      "nations ": 5871,
      "states ": 5872,
      "ic, ": 5873,
      "as well ": 5874,
      "up a ": 5875,
      "Corp. &lt;A HREF=\"http://www.investor.reuters.com/FullQuote.aspx?ticker=": 5876,
      "drop in ": 5877,
      "MSN ": 5878,
      "Most ": 5879,
      "UT": 5880,
      "post ": 5881,
      "as much ": 5882,
      "resh": 5883,
      "\\$2.": 5884,
      "Ship": 5885,
      "US p": 5886,
      "practice ": 5887,
      "&lt;/p&gt;&lt;p&gt;": 5888,
      "Shiite ": 5889,
      "Dr": 5890,
      "boss ": 5891,
      "jet ": 5892,
      "said Friday ": 5893,
      "2006 ": 5894,
      " billion": 5895,
      "discus": 5896,
      "near the ": 5897,
      "increase in ": 5898,
      "You ": 5899,
      "criminal ": 5900,
      "Million ": 5901,
      "Morg": 5902,
      "Rav": 5903,
      "Sim": 5904,
      "mut": 5905,
      "esh": 5906,
      "term": 5907,
      "its first ": 5908,
      "and-": 5909,
      "line": 5910,
      "Marth": 5911,
      "Spur": 5912,
      "itted ": 5913,
      "lawsuits ": 5914,
      "car bomb ": 5915,
      "confirmed ": 5916,
      "Digital ": 5917,
      "abinet ": 5918,
      "GE": 5919,
      "tomor": 5920,
      "key": 5921,
      "believe ": 5922,
      "arms ": 5923,
      "cutting ": 5924,
      "University ": 5925,
      " months ": 5926,
      "Food ": 5927,
      "hot ": 5928,
      "ly, ": 5929,
      "slip": 5930,
      "ert": 5931,
      "ers. ": 5932,
      "amp ": 5933,
      "owner ": 5934,
      "sey ": 5935,
      "heating ": 5936,
      "ordin": 5937,
      "they have ": 5938,
      "ensions ": 5939,
      "devices ": 5940,
      "Internet Explor": 5941,
      "certain": 5942,
      "signed ": 5943,
      "WASHINGTON - ": 5944,
      "employees ": 5945,
      "quarterly profit ": 5946,
      "Technologies ": 5947,
      "historic ": 5948,
      "Premier ": 5949,
      "GM ": 5950,
      "fast ": 5951,
      "ray ": 5952,
      "ott ": 5953,
      "parts ": 5954,
      "output ": 5955,
      "famili": 5956,
      "Bush's ": 5957,
      "relief ": 5958,
      "'re ": 5959,
      "Du": 5960,
      "base ": 5961,
      "lit": 5962,
      "er, the ": 5963,
      ". A ": 5964,
      "it had ": 5965,
      "leads ": 5966,
      "copy": 5967,
      "January ": 5968,
      "Industry ": 5969,
      "chain ": 5970,
      "surprise ": 5971,
      "Leg": 5972,
      "said on Thursday.": 5973,
      "Corp. (": 5974,
      "German": 5975,
      "question ": 5976,
      "environment": 5977,
      "E-": 5978,
      "onaut": 5979,
      "on their ": 5980,
      "ions to ": 5981,
      "win over the ": 5982,
      "Associated ": 5983,
      "complete ": 5984,
      "Redsk": 5985,
      "Could ": 5986,
      "Dan": 5987,
      "Jord": 5988,
      "Jose ": 5989,
      "Judge ": 5990,
      "mal": 5991,
      "ual": 5992,
      "se.": 5993,
      " - news - ": 5994,
      "times ": 5995,
      "devic": 5996,
      "holds ": 5997,
      "south ": 5998,
      "Annan ": 5999,
      "Anti-": 6000,
      "Act": 6001,
      "SBC ": 6002,
      "don": 6003,
      "gas": 6004,
      "mos": 6005,
      "moon ": 6006,
      "sul": 6007,
      ", with ": 6008,
      "ment of ": 6009,
      "icket": 6010,
      "flu ": 6011,
      "Airbus ": 6012,
      "funds ": 6013,
      "More than ": 6014,
      "chips ": 6015,
      "Hewitt ": 6016,
      "Beijing ": 6017,
      "Classic ": 6018,
      "Hewlett-Packard ": 6019,
      "Dou": 6020,
      "Jew": 6021,
      "Take ": 6022,
      "crim": 6023,
      "vide": 6024,
      "ars ": 6025,
      "es' ": 6026,
      "Marin": 6027,
      "With": 6028,
      "software maker ": 6029,
      "networks ": 6030,
      "Red H": 6031,
      "hostages ": 6032,
      "suspended ": 6033,
      "1-0 ": 6034,
      "Inc., ": 6035,
      "close to ": 6036,
      "decided to ": 6037,
      "advis": 6038,
      "finish ": 6039,
      "ogn": 6040,
      "ORT": 6041,
      "co.": 6042,
      "news": 6043,
      "when they ": 6044,
      "storm": 6045,
      "Arab ": 6046,
      "midd": 6047,
      " for ": 6048,
      "cle ": 6049,
      "eigh": 6050,
      "daf": 6051,
      "ers who ": 6052,
      "opport": 6053,
      "ies in ": 6054,
      "defensive ": 6055,
      "reported.": 6056,
      "demonstr": 6057,
      ". This ": 6058,
      "Indonesia ": 6059,
      "initi": 6060,
      "labor ": 6061,
      "dropped ": 6062,
      "July ": 6063,
      "significant ": 6064,
      "Dallas ": 6065,
      "Qaeda ": 6066,
      "Vict": 6067,
      "damag": 6068,
      "edia ": 6069,
      "abor": 6070,
      "said Tuesday.": 6071,
      "retire": 6072,
      "Bush administration ": 6073,
      "summer ": 6074,
      "virus ": 6075,
      "Turk": 6076,
      "diffic": 6077,
      "worries ": 6078,
      "Dam": 6079,
      "Ly": 6080,
      "Mid": 6081,
      "Sett": 6082,
      "cable ": 6083,
      "iet": 6084,
      "e on ": 6085,
      "thwest ": 6086,
      "ich": 6087,
      "sharp ": 6088,
      "drugs ": 6089,
      "Dec. ": 6090,
      "applications ": 6091,
      "Investors ": 6092,
      "massive ": 6093,
      "Vioxx ": 6094,
      "antitrust ": 6095,
      "ES": 6096,
      "Kn": 6097,
      "eastern ": 6098,
      "vent ": 6099,
      "restruc": 6100,
      "icop": 6101,
      "and  ": 6102,
      "Sunday #39;s ": 6103,
      "demand for ": 6104,
      "Cubs ": 6105,
      "something ": 6106,
      "Al ": 6107,
      "CA ": 6108,
      "DS ": 6109,
      "HO": 6110,
      "banks ": 6111,
      "jail": 6112,
      "ing from ": 6113,
      "twice ": 6114,
      "flo": 6115,
      "announced the ": 6116,
      "targets ": 6117,
      "\\$50 ": 6118,
      "Services ": 6119,
      "divid": 6120,
      "touchdown": 6121,
      "approval ": 6122,
      "influ": 6123,
      "Posts ": 6124,
      "FONT": 6125,
      "qualifying ": 6126,
      "World) ": 6127,
      "berg": 6128,
      "book": 6129,
      "fol": 6130,
      "munications ": 6131,
      "on Sunday, ": 6132,
      "es are ": 6133,
      "wif": 6134,
      "ness ": 6135,
      "off a ": 6136,
      "said on Monday.": 6137,
      "ure.": 6138,
      "College ": 6139,
      "semif": 6140,
      "Real Madrid ": 6141,
      "Ministry ": 6142,
      "Grand Prix ": 6143,
      "LI": 6144,
      "Nuc": 6145,
      "Ped": 6146,
      "kil": 6147,
      "via ": 6148,
      "in\\": 6149,
      "en to ": 6150,
      "expectations ": 6151,
      "American League ": 6152,
      "Board ": 6153,
      "SPACE": 6154,
      "miss ": 6155,
      "crucial ": 6156,
      "ber ": 6157,
      "done ": 6158,
      "sson ": 6159,
      ", is ": 6160,
      "or to ": 6161,
      "says he ": 6162,
      "hope ": 6163,
      "morn": 6164,
      "leaving ": 6165,
      "Jobs ": 6166,
      "training ": 6167,
      "Rangers ": 6168,
      "FC": 6169,
      "Wood": 6170,
      "fect ": 6171,
      "iation ": 6172,
      "things ": 6173,
      "in which ": 6174,
      "negotiations ": 6175,
      "wait ": 6176,
      "Husse": 6177,
      "60 ": 6178,
      "Austri": 6179,
      "Last ": 6180,
      "natur": 6181,
      "non-": 6182,
      "inside ": 6183,
      "ona": 6184,
      "of\\": 6185,
      "ley": 6186,
      "Insur": 6187,
      "Intel": 6188,
      "said Monday.": 6189,
      "umbl": 6190,
      "weak ": 6191,
      " mar": 6192,
      "event": 6193,
      ", the company ": 6194,
      "Andy ": 6195,
      "capac": 6196,
      "bring": 6197,
      "San Die": 6198,
      "Talib": 6199,
      "All-": 6200,
      "damage ": 6201,
      "AZ": 6202,
      "Fe": 6203,
      "pict": 6204,
      "ed on the ": 6205,
      "stun": 6206,
      "comple": 6207,
      "even": 6208,
      "had a ": 6209,
      " Percent ": 6210,
      "announced a ": 6211,
      "profess": 6212,
      "head of ": 6213,
      "goals ": 6214,
      "longer ": 6215,
      "Web site ": 6216,
      "mid-": 6217,
      "nership ": 6218,
      "Britain #39;s ": 6219,
      "women #39;s ": 6220,
      "Federer ": 6221,
      "democrac": 6222,
      "computing ": 6223,
      "Martha ": 6224,
      "Associated Pres": 6225,
      "Bet": 6226,
      "Case ": 6227,
      "Hold": 6228,
      "Vis": 6229,
      "bri": 6230,
      "sport": 6231,
      "yond ": 6232,
      "on's ": 6233,
      "embass": 6234,
      "Alan ": 6235,
      "Goog": 6236,
      "voting ": 6237,
      "deadline ": 6238,
      "figures ": 6239,
      "Direc": 6240,
      "Roddick ": 6241,
      "auction ": 6242,
      "caut": 6243,
      "mot": 6244,
      "the most ": 6245,
      "00 million ": 6246,
      "has a ": 6247,
      "teen": 6248,
      "losses ": 6249,
      "quarter, ": 6250,
      "launched a ": 6251,
      "running back ": 6252,
      "Atlantic ": 6253,
      "didn #39;t ": 6254,
      "2) ": 6255,
      "Ball": 6256,
      "Five ": 6257,
      "Kill ": 6258,
      "Sign": 6259,
      "cue ": 6260,
      "e, which ": 6261,
      "after being ": 6262,
      "for the second ": 6263,
      "&lt;/B&gt;": 6264,
      "World - ": 6265,
      "Nortel ": 6266,
      "urged ": 6267,
      "Associates ": 6268,
      "high-speed ": 6269,
      "Roon": 6270,
      "Outlook ": 6271,
      "Chris ": 6272,
      "scandal ": 6273,
      "6, ": 6274,
      "Free ": 6275,
      "GM": 6276,
      "IJ": 6277,
      "Lo": 6278,
      "thers ": 6279,
      "thanks ": 6280,
      "Chech": 6281,
      "compar": 6282,
      "evin ": 6283,
      "upset ": 6284,
      "active ": 6285,
      "&lt;/FONT": 6286,
      "not be ": 6287,
      "down the ": 6288,
      "next year.": 6289,
      "USAT": 6290,
      "Price ": 6291,
      "goes ": 6292,
      "file-": 6293,
      "round of ": 6294,
      "Econom": 6295,
      "Royal ": 6296,
      "Jeff ": 6297,
      "budget ": 6298,
      "&lt;/B&gt;&lt;/FONT": 6299,
      "&lt;/B&gt;&lt;/FONT&gt;": 6300,
      "Cassin": 6301,
      "Tre": 6302,
      "blast": 6303,
      "code ": 6304,
      "par ": 6305,
      "reform": 6306,
      "add ": 6307,
      "est-": 6308,
      "apol": 6309,
      "The United States ": 6310,
      "ations of ": 6311,
      "accept": 6312,
      "Plan": 6313,
      "moved ": 6314,
      "Motors ": 6315,
      "consider": 6316,
      "Nigerian ": 6317,
      "licens": 6318,
      "sburgh ": 6319,
      "Publ": 6320,
      "TI": 6321,
      "Vote ": 6322,
      "cou": 6323,
      "really ": 6324,
      "ater": 6325,
      "ativ": 6326,
      "ites ": 6327,
      "day of ": 6328,
      "exam": 6329,
      "ab ": 6330,
      "alled ": 6331,
      "surge ": 6332,
      "ell, ": 6333,
      "this year": 6334,
      "Corp ": 6335,
      "s and the ": 6336,
      "coal": 6337,
      "boy": 6338,
      " percent, ": 6339,
      "through": 6340,
      "charged ": 6341,
      "direct ": 6342,
      "pois": 6343,
      "Martine": 6344,
      "travel": 6345,
      "does not ": 6346,
      "OPEC ": 6347,
      "Cas": 6348,
      "Fle": 6349,
      "Hit ": 6350,
      "gather": 6351,
      "ph ": 6352,
      "ania ": 6353,
      "of-": 6354,
      "acu": 6355,
      "imag": 6356,
      "overs ": 6357,
      "shad": 6358,
      "and\\": 6359,
      "two weeks ": 6360,
      "New England ": 6361,
      "next week ": 6362,
      "carr": 6363,
      "Red Sox": 6364,
      "distribut": 6365,
      "Colorado ": 6366,
      "NT": 6367,
      "Penn": 6368,
      "ius ": 6369,
      "ml": 6370,
      "mic": 6371,
      "country.": 6372,
      "under the ": 6373,
      "following a ": 6374,
      "Athlet": 6375,
      "Hamid ": 6376,
      "video game ": 6377,
      "ridge ": 6378,
      "deficit ": 6379,
      "UPDATE 1-": 6380,
      "HICAGO (Reuters) - ": 6381,
      "Nav": 6382,
      "ield ": 6383,
      "jay ": 6384,
      "oty": 6385,
      "elling ": 6386,
      "ellow ": 6387,
      "Florida": 6388,
      "Yahoo": 6389,
      "Vodaf": 6390,
      "insist": 6391,
      "Java ": 6392,
      "ODAY": 6393,
      "Tennessee ": 6394,
      "USATODAY": 6395,
      "Way": 6396,
      "oes ": 6397,
      "or p": 6398,
      "es: ": 6399,
      "le's ": 6400,
      "enter ": 6401,
      "their first ": 6402,
      "access to ": 6403,
      "relimin": 6404,
      "athon ": 6405,
      "hostag": 6406,
      "remains ": 6407,
      "revenu": 6408,
      "MSFT": 6409,
      "Cour": 6410,
      "MAN": 6411,
      "Oper": 6412,
      "Wrap": 6413,
      "ma ": 6414,
      "prem": 6415,
      "tar": 6416,
      "tennis ": 6417,
      "arrest ": 6418,
      "ingham ": 6419,
      "\\$6": 6420,
      "count ": 6421,
      "rison ": 6422,
      "USAL": 6423,
      "ERUSAL": 6424,
      "UN Sec": 6425,
      "previously ": 6426,
      "stitut": 6427,
      "Kevin ": 6428,
      "bott": 6429,
      "mil": 6430,
      "Rebel": 6431,
      "Anal": 6432,
      "who was ": 6433,
      "captur": 6434,
      "election": 6435,
      "Sees ": 6436,
      "advant": 6437,
      "domestic ": 6438,
      "html": 6439,
      "IJING": 6440,
      " a ": 6441,
      "Hall": 6442,
      "Li": 6443,
      "Oct ": 6444,
      "Pen": 6445,
      "figh": 6446,
      "sought ": 6447,
      "erate ": 6448,
      "agent ": 6449,
      "establ": 6450,
      "ing a new ": 6451,
      "China's ": 6452,
      "time to ": 6453,
      "missing ": 6454,
      "airlin": 6455,
      "Seen ": 6456,
      "ment.": 6457,
      "Trad": 6458,
      "deal to ": 6459,
      "to reach ": 6460,
      "continued ": 6461,
      ". They ": 6462,
      "employment ": 6463,
      "prime minister ": 6464,
      "Rand": 6465,
      "Tech": 6466,
      "Youn": 6467,
      "i.": 6468,
      "io": 6469,
      "pull ": 6470,
      "orn ": 6471,
      "repe": 6472,
      "atives ": 6473,
      "elimin": 6474,
      "that was ": 6475,
      "buc": 6476,
      "minute ": 6477,
      "devast": 6478,
      "operator ": 6479,
      "month, ": 6480,
      "grew ": 6481,
      "climate ": 6482,
      "Militants ": 6483,
      "Major League ": 6484,
      "George W. Bush ": 6485,
      "Az": 6486,
      "Rac": 6487,
      "jail ": 6488,
      "oing ": 6489,
      "ples ": 6490,
      "educ": 6491,
      "that is ": 6492,
      "black ": 6493,
      "Iraqis ": 6494,
      " Pr": 6495,
      "Contro": 6496,
      "19 ": 6497,
      "Newcast": 6498,
      "rock": 6499,
      "economic growth ": 6500,
      "join ": 6501,
      "guilty ": 6502,
      "Mozilla ": 6503,
      "TORONTO": 6504,
      "Baltimore ": 6505,
      "49": 6506,
      "5 percent ": 6507,
      "Fac": 6508,
      "gri": 6509,
      "uce ": 6510,
      "er for ": 6511,
      "reserv": 6512,
      "ections ": 6513,
      "eping ": 6514,
      "expect ": 6515,
      "investor": 6516,
      "charged with ": 6517,
      "er-than-expected ": 6518,
      "open source ": 6519,
      "Charles ": 6520,
      "sector ": 6521,
      "instead ": 6522,
      "Ziff ": 6523,
      "ither ": 6524,
      "often ": 6525,
      "itors ": 6526,
      "ecom ": 6527,
      "ivid": 6528,
      "decide ": 6529,
      "runs ": 6530,
      "common ": 6531,
      "ctic ": 6532,
      "Network ": 6533,
      "Nov ": 6534,
      "Before ": 6535,
      "info ": 6536,
      "in Lad": 6537,
      "world's largest ": 6538,
      "industrial ": 6539,
      "Aub": 6540,
      "Dist": 6541,
      "Gov": 6542,
      "Zar": 6543,
      "inking ": 6544,
      "shut ": 6545,
      "whol": 6546,
      "project ": 6547,
      "word ": 6548,
      "upgrad": 6549,
      "eft ": 6550,
      "co-": 6551,
      "datab": 6552,
      "National League ": 6553,
      "voters ": 6554,
      "poor ": 6555,
      "roll ": 6556,
      "Air L": 6557,
      "Robert ": 6558,
      "carrier ": 6559,
      " police ": 6560,
      "Citigr": 6561,
      "ville ": 6562,
      " million, ": 6563,
      "Alex ": 6564,
      "Bangladesh ": 6565,
      "Oklahoma ": 6566,
      "Nuclear ": 6567,
      " &lt;A HREF=\"http://www.investor.reuters.com/FullQuote.aspx?ticker=": 6568,
      "How ": 6569,
      "cul": 6570,
      "wind": 6571,
      "reduce ": 6572,
      "on Wednesday.": 6573,
      "of State ": 6574,
      "haw": 6575,
      "mary ": 6576,
      "last month ": 6577,
      "New York Yankees ": 6578,
      ", 2004 (": 6579,
      "sites ": 6580,
      "electronic ": 6581,
      "Chry": 6582,
      "Turkish ": 6583,
      "Jagu": 6584,
      "billion ": 6585,
      "bought ": 6586,
      "hack": 6587,
      "setting ": 6588,
      "tour ": 6589,
      "wav": 6590,
      "clash ": 6591,
      "rict ": 6592,
      "ody ": 6593,
      " bus": 6594,
      "decis": 6595,
      "more than a ": 6596,
      "easy ": 6597,
      "experim": 6598,
      "sixth ": 6599,
      "Attack ": 6600,
      "reject": 6601,
      "Study ": 6602,
      "White House ": 6603,
      "benefits ": 6604,
      "Carlos ": 6605,
      "Wrap: ": 6606,
      "Cuts ": 6607,
      "Kh": 6608,
      "UE": 6609,
      "bs ": 6610,
      "fiz": 6611,
      ".  quot;": 6612,
      "should": 6613,
      "final": 6614,
      "upcoming ": 6615,
      "last year ": 6616,
      "ymn": 6617,
      "next week": 6618,
      "delay ": 6619,
      "employe": 6620,
      "emergency ": 6621,
      "wants to ": 6622,
      "complain": 6623,
      "awaited ": 6624,
      "Motorol": 6625,
      "4, ": 6626,
      "CO ": 6627,
      "Mess": 6628,
      "SAN": 6629,
      "Watch ": 6630,
      "don #39;t ": 6631,
      "ny ": 6632,
      "tie ": 6633,
      "zone ": 6634,
      "ing with ": 6635,
      "icon ": 6636,
      "is still ": 6637,
      "is set to ": 6638,
      "ed-": 6639,
      "deploy": 6640,
      "said Thursday.": 6641,
      "ifi": 6642,
      "all of ": 6643,
      "health": 6644,
      "upd": 6645,
      "score ": 6646,
      "Phone ": 6647,
      "jury ": 6648,
      "launched ": 6649,
      "Braves ": 6650,
      "HIL": 6651,
      "noteb": 6652,
      "successful ": 6653,
      "hotel ": 6654,
      "Georgia ": 6655,
      "Morgan ": 6656,
      "Red Hat ": 6657,
      "Chrysl": 6658,
      "Aid ": 6659,
      "BER ": 6660,
      "Jaz": 6661,
      "fel": 6662,
      "live ": 6663,
      ", quot; ": 6664,
      "\\$7": 6665,
      "talk": 6666,
      "interim ": 6667,
      "Death ": 6668,
      "standard ": 6669,
      "started ": 6670,
      "Russia #39;s ": 6671,
      "situ": 6672,
      "Ltd.": 6673,
      "Dodgers ": 6674,
      "-year-old ": 6675,
      "Clin": 6676,
      "although ": 6677,
      "oust": 6678,
      "and two ": 6679,
      "lets ": 6680,
      "en #39;s ": 6681,
      "Stra": 6682,
      "fring": 6683,
      "of the season ": 6684,
      "Chip ": 6685,
      "Mont": 6686,
      "Micro ": 6687,
      " bill": 6688,
      "related ": 6689,
      "Probe ": 6690,
      "European Commission ": 6691,
      "Barry ": 6692,
      "allegedly ": 6693,
      "seek": 6694,
      "allows ": 6695,
      "camer": 6696,
      "EC": 6697,
      "Hear": 6698,
      "Jacqu": 6699,
      "Mr": 6700,
      ", Calif": 6701,
      "ing-": 6702,
      ": A ": 6703,
      "Anahe": 6704,
      "falling ": 6705,
      "fastest ": 6706,
      "Time Warner ": 6707,
      "Pittsburgh ": 6708,
      "familiar ": 6709,
      "Next ": 6710,
      "Spr": 6711,
      "ao ": 6712,
      "ni ": 6713,
      "rare ": 6714,
      "watch ": 6715,
      "ina": 6716,
      "income ": 6717,
      "rook": 6718,
      "plant": 6719,
      ") and ": 6720,
      "appl": 6721,
      "Reports ": 6722,
      "scen": 6723,
      "helicop": 6724,
      "President Vladimir ": 6725,
      "armace": 6726,
      "film": 6727,
      "champions ": 6728,
      "problem": 6729,
      "DVD": 6730,
      "Develop": 6731,
      "armaceut": 6732,
      "Journ": 6733,
      "ented ": 6734,
      "regional ": 6735,
      "ferenc": 6736,
      "New York": 6737,
      "subscrib": 6738,
      "Group": 6739,
      "R ": 6740,
      "She": 6741,
      "wave ": 6742,
      "Montre": 6743,
      "flights ": 6744,
      "ulls ": 6745,
      "capit": 6746,
      "product": 6747,
      "No.": 6748,
      "traders ": 6749,
      "asked ": 6750,
      "Storm ": 6751,
      "Smith ": 6752,
      "Chief Executive ": 6753,
      "for the first time in ": 6754,
      "chance to ": 6755,
      "purchas": 6756,
      "Lenn": 6757,
      "bill": 6758,
      "most": 6759,
      "ont": 6760,
      "as an ": 6761,
      "iro ": 6762,
      "exchange ": 6763,
      "seeded ": 6764,
      "Clim": 6765,
      "ruption ": 6766,
      "enough to ": 6767,
      "ATHENS (Reuters) - ": 6768,
      "1: ": 6769,
      "Buc": 6770,
      "Lower ": 6771,
      "Near ": 6772,
      "Rap": 6773,
      "\\ ": 6774,
      "ary, ": 6775,
      "enh": 6776,
      "always ": 6777,
      "escap": 6778,
      "try ": 6779,
      "upgrade ": 6780,
      "officer ": 6781,
      "head of the ": 6782,
      "beginning ": 6783,
      "tonight ": 6784,
      "Buil": 6785,
      " profit ": 6786,
      "Greenspan ": 6787,
      "LOS ANGELES ": 6788,
      "Pist": 6789,
      "Tamp": 6790,
      "cash": 6791,
      "sle": 6792,
      "to an ": 6793,
      "to settle ": 6794,
      "aband": 6795,
      "Stan": 6796,
      "s to a ": 6797,
      "Joe ": 6798,
      "loss": 6799,
      "ARIS ": 6800,
      "Bron": 6801,
      "a few ": 6802,
      "protection ": 6803,
      "want to ": 6804,
      "young ": 6805,
      "Pedro ": 6806,
      "Back": 6807,
      "Dur": 6808,
      "Ev": 6809,
      "bal": 6810,
      "ers for ": 6811,
      "display ": 6812,
      "appear ": 6813,
      "withdraw ": 6814,
      "3-0 ": 6815,
      "said it will ": 6816,
      "advanc": 6817,
      "rejected ": 6818,
      "apparently ": 6819,
      "resume ": 6820,
      "describ": 6821,
      "Moscow ": 6822,
      "Sun Microsystems ": 6823,
      "400 ": 6824,
      "Rally ": 6825,
      "WM": 6826,
      "browser ": 6827,
      "won a ": 6828,
      "check": 6829,
      "check ": 6830,
      "etim": 6831,
      "eds ": 6832,
      "buys ": 6833,
      "blam": 6834,
      "grand ": 6835,
      "iz ": 6836,
      "need to ": 6837,
      "individ": 6838,
      "Apple": 6839,
      "umble ": 6840,
      "halt ": 6841,
      "great": 6842,
      " price ": 6843,
      "Trophy ": 6844,
      "Sen. ": 6845,
      "Tigers ": 6846,
      "businesses ": 6847,
      "crowd ": 6848,
      "recovery ": 6849,
      "Tiger Woods ": 6850,
      "Securities and Exchange Commission ": 6851,
      "Taliban ": 6852,
      "King ": 6853,
      "bury ": 6854,
      "border ": 6855,
      "pass ": 6856,
      "irates ": 6857,
      "spam": 6858,
      "ation and ": 6859,
      "end.": 6860,
      "pre-": 6861,
      "handheld ": 6862,
      "Expos ": 6863,
      "dollars ": 6864,
      "Clem": 6865,
      "DEL": 6866,
      "Haw": 6867,
      "Make ": 6868,
      "cup": 6869,
      "ans, ": 6870,
      "ims ": 6871,
      "Real": 6872,
      "train ": 6873,
      "giant": 6874,
      "Corp.'s ": 6875,
      "remained ": 6876,
      "Leader ": 6877,
      "simil": 6878,
      "OTT": 6879,
      "advertising ": 6880,
      "5 billion ": 6881,
      "Beg": 6882,
      "review": 6883,
      "200 ": 6884,
      "ORE": 6885,
      "under-": 6886,
      "Forec": 6887,
      " CHICAGO (Reuters) - ": 6888,
      "top-": 6889,
      "Trav": 6890,
      "strength ": 6891,
      "Koda": 6892,
      "Manning ": 6893,
      "Cav": 6894,
      "Hor": 6895,
      "V ": 6896,
      "band": 6897,
      "pain": 6898,
      "yen ": 6899,
      "illeg": 6900,
      "commission": 6901,
      "bean ": 6902,
      "Chief": 6903,
      "words ": 6904,
      "said its ": 6905,
      "lins ": 6906,
      "two years ": 6907,
      "need ": 6908,
      "Express ": 6909,
      "film ": 6910,
      "killed at least ": 6911,
      "incinn": 6912,
      "Viet": 6913,
      "standing ": 6914,
      "raising ": 6915,
      "rebound": 6916,
      "digital music ": 6917,
      "CIT": 6918,
      "Lew": 6919,
      "Pur": 6920,
      "TS": 6921,
      "hour ": 6922,
      "qa": 6923,
      "will": 6924,
      "story ": 6925,
      "The Washington ": 6926,
      "up for ": 6927,
      "airport ": 6928,
      "reported on ": 6929,
      "Play ": 6930,
      "include ": 6931,
      "serve ": 6932,
      "worldwide ": 6933,
      "Teh": 6934,
      "supplies ": 6935,
      "Strike ": 6936,
      "Windows XP": 6937,
      "Saddam Husse": 6938,
      "Toshiba ": 6939,
      "Vodafone ": 6940,
      "Mu": 6941,
      "bul": 6942,
      "ients ": 6943,
      "mo ": 6944,
      "ur ": 6945,
      "eway ": 6946,
      "after": 6947,
      "was not ": 6948,
      "crack": 6949,
      "erson": 6950,
      "summit ": 6951,
      "seeking ": 6952,
      "acekeep": 6953,
      "suffer": 6954,
      "Myan": 6955,
      "Delta Air L": 6956,
      "Quarter ": 6957,
      "NewsFactor ": 6958,
      "reliminary ": 6959,
      "Jr": 6960,
      "Jones": 6961,
      "bit ": 6962,
      "table ": 6963,
      "ings, ": 6964,
      "ched ": 6965,
      "oppos": 6966,
      "or of ": 6967,
      "said Wednesday.": 6968,
      "2005": 6969,
      "person ": 6970,
      " Sun": 6971,
      "time in ": 6972,
      "quickly ": 6973,
      "politic": 6974,
      "range ": 6975,
      "shoot": 6976,
      "Nasdaq: ": 6977,
      "doesn #39;t ": 6978,
      "independent ": 6979,
      "Beckham ": 6980,
      "Cincinn": 6981,
      "Has ": 6982,
      "Takes ": 6983,
      "or) ": 6984,
      "ground": 6985,
      "up, ": 6986,
      "played ": 6987,
      "visit to ": 6988,
      "increasingly ": 6989,
      "request ": 6990,
      "pilots ": 6991,
      "Fund ": 6992,
      "Gord": 6993,
      "Your ": 6994,
      "ring ": 6995,
      "eling ": 6996,
      "is.": 6997,
      "territ": 6998,
      "Start ": 6999,
      "offered ": 7000,
      "US military ": 7001,
      "\\$9": 7002,
      "remov": 7003,
      "Viol": 7004,
      "mater": 7005,
      "separat": 7006,
      "seventh ": 7007,
      "Foreign Minister ": 7008,
      "NewsFactor) ": 7009,
      "Engine ": 7010,
      "Middle East ": 7011,
      " SAN FRANCISCO (Reuters) - ": 7012,
      "Chechen ": 7013,
      "Newcastle ": 7014,
      "NewsFactor) NewsFactor ": 7015,
      "BO": 7016,
      "Down": 7017,
      "Pop": 7018,
      "Year": 7019,
      "din": 7020,
      "fam": 7021,
      "ique ": 7022,
      "at an ": 7023,
      "in the United States ": 7024,
      "franch": 7025,
      "protest": 7026,
      "... ": 7027,
      "seconds ": 7028,
      "holder ": 7029,
      "Sharap": 7030,
      "Compan": 7031,
      "closer to ": 7032,
      "know": 7033,
      "Economic ": 7034,
      "Windows XP ": 7035,
      "ninth ": 7036,
      "Illin": 7037,
      "Egyptian ": 7038,
      "mortgage ": 7039,
      "anis": 7040,
      "al of ": 7041,
      "is being ": 7042,
      "univers": 7043,
      "use of ": 7044,
      "eting ": 7045,
      "alls ": 7046,
      "agreed ": 7047,
      "Plans ": 7048,
      " process": 7049,
      "surgery ": 7050,
      "Computer Associates ": 7051,
      "Electronics ": 7052,
      "NYSE: ": 7053,
      "quiry ": 7054,
      "300": 7055,
      "A) ": 7056,
      "Sain": 7057,
      "eve ": 7058,
      "eased ": 7059,
      "loy": 7060,
      "mates ": 7061,
      "uro ": 7062,
      "leagu": 7063,
      "aks ": 7064,
      "accept ": 7065,
      "slide ": 7066,
      "Iranian ": 7067,
      "With the ": 7068,
      "following the ": 7069,
      "customer ": 7070,
      "Swiss ": 7071,
      "Bears ": 7072,
      "BUR": 7073,
      "Cow": 7074,
      "pare ": 7075,
      "weigh": 7076,
      "Spec": 7077,
      "Phot": 7078,
      "closer ": 7079,
      "rule ": 7080,
      "raises ": 7081,
      "car bomb": 7082,
      "ATHENS, ": 7083,
      "deliver ": 7084,
      "Brief": 7085,
      "business.": 7086,
      "aught ": 7087,
      "Jewish ": 7088,
      "Equ": 7089,
      "LS ": 7090,
      "PM": 7091,
      "Som": 7092,
      "iet ": 7093,
      ", D": 7094,
      "image ": 7095,
      "Info": 7096,
      "sues ": 7097,
      "US Open ": 7098,
      "blog": 7099,
      "Under ": 7100,
      "time.": 7101,
      "encour": 7102,
      "Prince ": 7103,
      "presidential election ": 7104,
      "According to ": 7105,
      "Liber": 7106,
      "Secretary of State ": 7107,
      "nuclear progr": 7108,
      "San Diego ": 7109,
      "Kab": 7110,
      "Mun": 7111,
      "NA ": 7112,
      "stret": 7113,
      "to give ": 7114,
      "raf": 7115,
      "web ": 7116,
      "eback ": 7117,
      "Saturn ": 7118,
      "ruled ": 7119,
      "analyst ": 7120,
      " polic": 7121,
      "extra ": 7122,
      "expansion ": 7123,
      "co.uk": 7124,
      "Zarqa": 7125,
      "Ferg": 7126,
      "Gary ": 7127,
      "Ru": 7128,
      "Rum": 7129,
      "iple ": 7130,
      "aris ": 7131,
      ", S": 7132,
      "outh ": 7133,
      "theastern ": 7134,
      "Iraq, ": 7135,
      "Spitz": 7136,
      "poll ": 7137,
      "tried to ": 7138,
      "ment, ": 7139,
      ".com ": 7140,
      "Palestinian leader ": 7141,
      "continued to ": 7142,
      "efforts ": 7143,
      "IPO ": 7144,
      "response ": 7145,
      "Yasser Araf": 7146,
      "(Update1) ": 7147,
      "approach ": 7148,
      "Jeann": 7149,
      "Treasur": 7150,
      "Launch ": 7151,
      "initial public ": 7152,
      "penal": 7153,
      "restructur": 7154,
      "Dun": 7155,
      "Kobe ": 7156,
      "Nation": 7157,
      "pension ": 7158,
      "ating the ": 7159,
      "ated the ": 7160,
      "asc": 7161,
      "edy ": 7162,
      "Read": 7163,
      "said in a ": 7164,
      "assassin": 7165,
      "playoff": 7166,
      "Europ": 7167,
      "No. 2 ": 7168,
      "Agass": 7169,
      "double": 7170,
      "programm": 7171,
      "problem ": 7172,
      "magaz": 7173,
      "Quarter": 7174,
      "conflict ": 7175,
      "period ": 7176,
      "traffic ": 7177,
      "veteran ": 7178,
      "Tampa ": 7179,
      "AV": 7180,
      "Euro ": 7181,
      "Go ": 7182,
      "Mem": 7183,
      "Poin": 7184,
      "jhtml": 7185,
      "mob": 7186,
      "ens of ": 7187,
      "stone ": 7188,
      "said yesterday.": 7189,
      "merg": 7190,
      "down on ": 7191,
      "said on Thursday ": 7192,
      "planes ": 7193,
      "traditional ": 7194,
      "&lt;b&gt;...&lt;/b&gt; The ": 7195,
      "Indiana ": 7196,
      "citiz": 7197,
      "driven ": 7198,
      "areas ": 7199,
      "NFL": 7200,
      "separate ": 7201,
      "Davis Cup ": 7202,
      "Hong Kong ": 7203,
      "Indianapol": 7204,
      "Rooney ": 7205,
      "Wayne ": 7206,
      "co.uk/": 7207,
      "33": 7208,
      "Cur": 7209,
      "Sub": 7210,
      "Tom": 7211,
      "lap": 7212,
      "esis ": 7213,
      "rather ": 7214,
      "day\\": 7215,
      "deep ": 7216,
      "in the third ": 7217,
      "regist": 7218,
      "AT ": 7219,
      "ure, ": 7220,
      "venue ": 7221,
      "advance ": 7222,
      "Hamm ": 7223,
      "type=": 7224,
      "acquisition of ": 7225,
      "Author": 7226,
      " NEW YORK (Reuters) - U.S. stocks ": 7227,
      "Cassini ": 7228,
      "Jacques ": 7229,
      "=news": 7230,
      "Hass": 7231,
      "eQuot": 7232,
      "eLook": 7233,
      "may": 7234,
      "qcat": 7235,
      "qtype=": 7236,
      "ama ": 7237,
      "quit ": 7238,
      "m inf": 7239,
      "Leagu": 7240,
      "crew ": 7241,
      "officially ": 7242,
      "guid": 7243,
      "reuters.co.uk/": 7244,
      "&lt;A HREF=\"http://www.reuters.co.uk/": 7245,
      "speculation ": 7246,
      "India #39;s ": 7247,
      "financeQuot": 7248,
      "Schilling ": 7249,
      "away from ": 7250,
      "Attorney ": 7251,
      "Charl": 7252,
      "sym inf": 7253,
      "wanted ": 7254,
      "up.jhtml": 7255,
      "pe=info ": 7256,
      "Target ": 7257,
      "Nobel ": 7258,
      "Prime Minister Ariel Sharon ": 7259,
      "Administration ": 7260,
      "otype=info ": 7261,
      "=news\"&gt;": 7262,
      "eLookup.jhtml": 7263,
      "qcat=news\"&gt;": 7264,
      "qtype=sym inf": 7265,
      "&lt;A HREF=\"http://www.reuters.co.uk/financeQuot": 7266,
      "otype=info qcat=news\"&gt;": 7267,
      "eLookup.jhtml?ticker=": 7268,
      "qtype=sym infotype=info qcat=news\"&gt;": 7269,
      "&lt;A HREF=\"http://www.reuters.co.uk/financeQuoteLookup.jhtml?ticker=": 7270,
      "80 ": 7271,
      "ID ": 7272,
      "Lions ": 7273,
      "Pil": 7274,
      "Pad": 7275,
      "oke ": 7276,
      "wand": 7277,
      "on Friday.": 7278,
      "to win ": 7279,
      "apolog": 7280,
      "deals ": 7281,
      "Chart": 7282,
      "spend ": 7283,
      "\\$3.": 7284,
      " Sept": 7285,
      "Canada": 7286,
      "Colts ": 7287,
      "opened ": 7288,
      "voy ": 7289,
      "gold med": 7290,
      "soldier ": 7291,
      "among the ": 7292,
      "Halo ": 7293,
      "screen ": 7294,
      "disappointing ": 7295,
      "Louis": 7296,
      "Redskins ": 7297,
      "PR": 7298,
      "cann": 7299,
      "has": 7300,
      "i p": 7301,
      "ln ": 7302,
      "stay": 7303,
      "antly ": 7304,
      "helping ": 7305,
      "scoring ": 7306,
      "considering ": 7307,
      "semi-": 7308,
      "continue to ": 7309,
      "outside the ": 7310,
      "Premi": 7311,
      "afternoon ": 7312,
      "Samsung ": 7313,
      "Zimbabwe ": 7314,
      "Martha Stewart ": 7315,
      "Citigroup ": 7316,
      "Mut": 7317,
      "MOSCO": 7318,
      "Now": 7319,
      "TE": 7320,
      "eBay ": 7321,
      "patch": 7322,
      "tight": 7323,
      "s with ": 7324,
      "oul": 7325,
      "itical ": 7326,
      "ager ": 7327,
      "exports ": 7328,
      "Reb": 7329,
      "occup": 7330,
      "amp;": 7331,
      "Space": 7332,
      "Barcel": 7333,
      "received ": 7334,
      "Emb": 7335,
      "(CP) - ": 7336,
      "Symant": 7337,
      "shareholders ": 7338,
      "MI": 7339,
      "Mount ": 7340,
      "Ros": 7341,
      "recomm": 7342,
      "review ": 7343,
      "room": 7344,
      "ione": 7345,
      "raid ": 7346,
      "after an ": 7347,
      "blood ": 7348,
      "blood": 7349,
      "assoc": 7350,
      "science ": 7351,
      "away": 7352,
      "them to ": 7353,
      "draft ": 7354,
      "iversary ": 7355,
      "virus": 7356,
      "widely ": 7357,
      "Longhor": 7358,
      "Auburn ": 7359,
      "Ferr": 7360,
      "Lim": 7361,
      "Perv": 7362,
      "Run": 7363,
      "Say ": 7364,
      "Twins ": 7365,
      "s The ": 7366,
      "ch-": 7367,
      "ries ": 7368,
      "exist": 7369,
      "shuttle ": 7370,
      "recogn": 7371,
      " Satur": 7372,
      "remote ": 7373,
      "defending ": 7374,
      "carry ": 7375,
      "championship": 7376,
      "terrorism": 7377,
      "Player ": 7378,
      "candidates ": 7379,
      "aggress": 7380,
      "Launches ": 7381,
      "legisl": 7382,
      "as much as ": 7383,
      "NewsFactor) NewsFactor - ": 7384,
      "LS": 7385,
      "Makes ": 7386,
      "jan ": 7387,
      "lan ": 7388,
      "piec": 7389,
      "infring": 7390,
      "ambit": 7391,
      "ter.": 7392,
      "unless ": 7393,
      " per": 7394,
      "seiz": 7395,
      "uments ": 7396,
      "weep ": 7397,
      "ibur": 7398,
      "acher ": 7399,
      "Forb": 7400,
      "oil-": 7401,
      "filed ": 7402,
      "banking ": 7403,
      "Quote, Chart": 7404,
      "distrib": 7405,
      "Walt ": 7406,
      "manufacturing ": 7407,
      "tackle ": 7408,
      "Montreal ": 7409,
      "ESP": 7410,
      "Hy": 7411,
      "Have ": 7412,
      "IE": 7413,
      "It": 7414,
      "Po": 7415,
      "vinc": 7416,
      "s of the ": 7417,
      "one, ": 7418,
      "es. The ": 7419,
      "is now ": 7420,
      "rif": 7421,
      "rian ": 7422,
      "ray": 7423,
      "buster ": 7424,
      "argo ": 7425,
      "when a ": 7426,
      "prevent ": 7427,
      "said on Wednesday ": 7428,
      "extend ": 7429,
      "Vijay ": 7430,
      "Prime Minister Tony Blair ": 7431,
      "General Motors ": 7432,
      "refus": 7433,
      "stroke ": 7434,
      "defeated ": 7435,
      "unveils ": 7436,
      "camp ": 7437,
      "suicide bomb": 7438,
      "Help ": 7439,
      "Corporation ": 7440,
      "Larry ": 7441,
      "telecommunications ": 7442,
      "uranium enrich": 7443,
      "UB": 7444,
      "Wenger ": 7445,
      "ault ": 7446,
      "fer ": 7447,
      "nam ": 7448,
      "oid": 7449,
      "arth": 7450,
      "aries ": 7451,
      "stag": 7452,
      "construction ": 7453,
      "days of ": 7454,
      "Store ": 7455,
      "offense ": 7456,
      "2003 ": 7457,
      "Google Inc. ": 7458,
      "entertainment ": 7459,
      "illion-": 7460,
      "ABUL": 7461,
      "activity ": 7462,
      "features ": 7463,
      "watchdog ": 7464,
      "goods ": 7465,
      "next": 7466,
      "on an ": 7467,
      "at-": 7468,
      "ex-": 7469,
      "in the final ": 7470,
      "this year, ": 7471,
      "Microsoft's ": 7472,
      "ashed ": 7473,
      "warns ": 7474,
      "yesterday to ": 7475,
      "CEO": 7476,
      "said it would ": 7477,
      "provider ": 7478,
      "patent ": 7479,
      "Delta Air Lines ": 7480,
      "Found": 7481,
      "Gates ": 7482,
      "Pack ": 7483,
      "Pfiz": 7484,
      "Sir ": 7485,
      "Toy": 7486,
      "iously ": 7487,
      "memb": 7488,
      "the latest ": 7489,
      "on Tuesday.": 7490,
      "impress": 7491,
      "beyond ": 7492,
      "ation to ": 7493,
      "board": 7494,
      "defence ": 7495,
      "over the next ": 7496,
      "community ": 7497,
      "sche ": 7498,
      "Final ": 7499,
      "Guard ": 7500,
      "Committee ": 7501,
      "rock ": 7502,
      "graph": 7503,
      "Brian ": 7504,
      "Dow Jones": 7505,
      "Terror ": 7506,
      "Liverpool ": 7507,
      "Fannie Mae ": 7508,
      "eighth ": 7509,
      "President Vladimir Putin ": 7510,
      "1 billion ": 7511,
      "28 ": 7512,
      "His ": 7513,
      "Mour": 7514,
      "Pos": 7515,
      "Q ": 7516,
      "e...": 7517,
      "gian ": 7518,
      "langu": 7519,
      "mist": 7520,
      "liqu": 7521,
      "scape ": 7522,
      "design ": 7523,
      "World Trade ": 7524,
      "cerem": 7525,
      "South Korea ": 7526,
      "drove ": 7527,
      "marketing ": 7528,
      "effort ": 7529,
      "starts ": 7530,
      ".O: Quote, Profile, Research) ": 7531,
      "America Online ": 7532,
      "message ": 7533,
      " million.": 7534,
      "witnesses ": 7535,
      "towards ": 7536,
      "90": 7537,
      "Apr": 7538,
      "CS": 7539,
      "X-": 7540,
      "mass ": 7541,
      "typ": 7542,
      "vid": 7543,
      "won't ": 7544,
      "in  ": 7545,
      "in S": 7546,
      "igious ": 7547,
      "day of the ": 7548,
      "entire ": 7549,
      "entially ": 7550,
      "ations and ": 7551,
      "said that ": 7552,
      "out a ": 7553,
      " mark": 7554,
      "ack of ": 7555,
      "icky ": 7556,
      " SE": 7557,
      "aches ": 7558,
      "century ": 7559,
      "violent ": 7560,
      "continues to ": 7561,
      "proposal ": 7562,
      "receiver ": 7563,
      "Scotland ": 7564,
      "Ravens ": 7565,
      "Hallibur": 7566,
      "rookie ": 7567,
      "2 million ": 7568,
      "A: ": 7569,
      "Bos": 7570,
      "didn": 7571,
      "kind ": 7572,
      "ano ": 7573,
      "altern": 7574,
      "on Saturday, ": 7575,
      "chanc": 7576,
      "unbeaten ": 7577,
      "ever, ": 7578,
      "after his ": 7579,
      "parliament ": 7580,
      "USA ": 7581,
      "solid ": 7582,
      "Great ": 7583,
      "while the ": 7584,
      "protect": 7585,
      "third-quarter profit ": 7586,
      "Garc": 7587,
      "and wounding ": 7588,
      "64": 7589,
      "AE": 7590,
      "Nic": 7591,
      "Pay ": 7592,
      "Ron ": 7593,
      "ios ": 7594,
      "non": 7595,
      "wn ": 7596,
      "abduc": 7597,
      "Steph": 7598,
      "lip ": 7599,
      "plays ": 7600,
      " PT": 7601,
      "INGAP": 7602,
      "Adobe ": 7603,
      "season-": 7604,
      "Centr": 7605,
      "Salv": 7606,
      "cause ": 7607,
      "doctors ": 7608,
      "appeals ": 7609,
      "NASCAR ": 7610,
      "MO": 7611,
      "Por": 7612,
      "caught ": 7613,
      "ling": 7614,
      "sex ": 7615,
      "style ": 7616,
      "has announced ": 7617,
      "spon": 7618,
      "flat ": 7619,
      "US, ": 7620,
      "begins ": 7621,
      "divis": 7622,
      "half of ": 7623,
      "delayed ": 7624,
      "Sadr ": 7625,
      "22 ": 7626,
      "ess, ": 7627,
      "ution": 7628,
      "Chirac": 7629,
      " milit": 7630,
      "\\$7.": 7631,
      "y, a ": 7632,
      "rival": 7633,
      "Industri": 7634,
      "(Reuters) Reuters - A ": 7635,
      "green ": 7636,
      "moving ": 7637,
      "lands ": 7638,
      "like a ": 7639,
      "despite a ": 7640,
      "Space Station ": 7641,
      "pitcher ": 7642,
      "Update 1: ": 7643,
      " Prof": 7644,
      "17-": 7645,
      "Cros": 7646,
      "Power": 7647,
      "San": 7648,
      "Wis": 7649,
      "YD": 7650,
      "Y, ": 7651,
      "good": 7652,
      "myst": 7653,
      "in China ": 7654,
      "is: ": 7655,
      ". (": 7656,
      "conserv": 7657,
      "condem": 7658,
      " maker ": 7659,
      "records ": 7660,
      "residents ": 7661,
      "es, and ": 7662,
      "March ": 7663,
      "extended ": 7664,
      "Beat ": 7665,
      "subst": 7666,
      "approved ": 7667,
      "Falluja ": 7668,
      "Rises ": 7669,
      "strategy ": 7670,
      "vehicle ": 7671,
      "anticipated ": 7672,
      "Pervez ": 7673,
      "Coc": 7674,
      "golf ": 7675,
      "kin": 7676,
      "oard ": 7677,
      "pact ": 7678,
      "za ": 7679,
      "on Thursday.": 7680,
      "ated by ": 7681,
      "chem": 7682,
      "edged ": 7683,
      "option ": 7684,
      "said Friday.": 7685,
      "finds ": 7686,
      "slid": 7687,
      "regular ": 7688,
      "extend": 7689,
      "Carter ": 7690,
      "closing ": 7691,
      "Genesis ": 7692,
      "Inc.'s ": 7693,
      "platform": 7694,
      ", Iraq - ": 7695,
      "earthquake ": 7696,
      "coalition ": 7697,
      "Bell": 7698,
      "Der": 7699,
      "ED ": 7700,
      "I #39;": 7701,
      "erup": 7702,
      "though": 7703,
      "ofi ": 7704,
      "ica ": 7705,
      "in Gaza ": 7706,
      "ess.": 7707,
      "rot": 7708,
      "opens ": 7709,
      "against a ": 7710,
      "apping ": 7711,
      "hole ": 7712,
      "Clar": 7713,
      "no longer ": 7714,
      "Again ": 7715,
      "state of ": 7716,
      "support for ": 7717,
      "hardware ": 7718,
      "attempt ": 7719,
      "Capital ": 7720,
      "processor ": 7721,
      "tempor": 7722,
      ")--": 7723,
      "1/": 7724,
      "1,000 ": 7725,
      "Blast ": 7726,
      "Mau": 7727,
      "flaw": 7728,
      "ux": 7729,
      "ero ": 7730,
      "to keep ": 7731,
      "in this ": 7732,
      "options ": 7733,
      "that can ": 7734,
      "from his ": 7735,
      "finding ": 7736,
      "Unit": 7737,
      "order to ": 7738,
      "leading the ": 7739,
      "Frank ": 7740,
      "year contract ": 7741,
      "medic": 7742,
      "said on Tuesday ": 7743,
      "Dead ": 7744,
      "developing ": 7745,
      "Super ": 7746,
      "allegations ": 7747,
      "jumped ": 7748,
      "threatened to ": 7749,
      ", according to a ": 7750,
      "Officials ": 7751,
      "celebr": 7752,
      ", the world #39;s largest ": 7753,
      "Brazilian ": 7754,
      "knee ": 7755,
      "natural ": 7756,
      "SpaceShip": 7757,
      " ATHENS (Reuters) - ": 7758,
      "East": 7759,
      "sla": 7760,
      "ens, ": 7761,
      "Republic ": 7762,
      "region.": 7763,
      "Ass": 7764,
      "Second ": 7765,
      "special": 7766,
      "2-1 ": 7767,
      "struggling ": 7768,
      "risk of ": 7769,
      "&lt;FONT face=\"verdana,MS Sans Serif,arial,helvetica\" size=\"-2\" ": 7770,
      " market ": 7771,
      "ERUSALEM": 7772,
      "Illino": 7773,
      "Premiership ": 7774,
      "Day": 7775,
      "Jak": 7776,
      "Kidnapp": 7777,
      "Kmart ": 7778,
      "LO": 7779,
      "Rwand": 7780,
      "Sin": 7781,
      "coup ": 7782,
      "eign": 7783,
      "seed ": 7784,
      "spark": 7785,
      "Alital": 7786,
      "warm": 7787,
      "capt": 7788,
      "set for ": 7789,
      "Columb": 7790,
      "calling ": 7791,
      "world #39;s largest ": 7792,
      "Department of ": 7793,
      "Philippines ": 7794,
      "copyright ": 7795,
      "Anaheim ": 7796,
      "(Nasdaq: ": 7797,
      "Mach": 7798,
      "e? ": 7799,
      "ine.": 7800,
      "esp": 7801,
      "as many ": 7802,
      "ami ": 7803,
      " pass": 7804,
      "seas ": 7805,
      "ation of the ": 7806,
      "anger ": 7807,
      "achus": 7808,
      "China, ": 7809,
      "that it has ": 7810,
      "eze ": 7811,
      "operating system ": 7812,
      "Entertainment ": 7813,
      "Kodak ": 7814,
      "The Washington Post": 7815,
      "0, ": 7816,
      "Fut": 7817,
      "Hub": 7818,
      "Mel": 7819,
      "Meg": 7820,
      "catch": 7821,
      "don't ": 7822,
      "fill": 7823,
      "gone ": 7824,
      "n, ": 7825,
      "pt ": 7826,
      "tada ": 7827,
      "ing: ": 7828,
      "revol": 7829,
      "ent of ": 7830,
      "shel": 7831,
      "ille ": 7832,
      "ivity ": 7833,
      "Chen": 7834,
      " (AFP) AFP - ": 7835,
      " (AP) -- ": 7836,
      "end, ": 7837,
      "ange ": 7838,
      "Mary": 7839,
      "mine ": 7840,
      "INT": 7841,
      "can #39;t ": 7842,
      "signs ": 7843,
      "auth": 7844,
      "treatment ": 7845,
      "respond": 7846,
      "as part of a ": 7847,
      "exploded ": 7848,
      "subsidi": 7849,
      "Massachus": 7850,
      "carrying ": 7851,
      "similar ": 7852,
      "Gordon ": 7853,
      "7, ": 7854,
      "FO": 7855,
      "How": 7856,
      "Ov": 7857,
      "Ren": 7858,
      "Tak": 7859,
      "Tour": 7860,
      "a, the ": 7861,
      "sport ": 7862,
      "tops ": 7863,
      "to sell ": 7864,
      "asks ": 7865,
      "adds ": 7866,
      "quite ": 7867,
      "shak": 7868,
      "ably ": 7869,
      "behead": 7870,
      "years in ": 7871,
      "es, but ": 7872,
      "Commerce ": 7873,
      "holy ": 7874,
      "command": 7875,
      "changes ": 7876,
      "including a ": 7877,
      "facing ": 7878,
      "advanced ": 7879,
      "Corp., ": 7880,
      "Europe #39;s ": 7881,
      "th-ranked ": 7882,
      "Wales ": 7883,
      "Trial ": 7884,
      "list of ": 7885,
      "wild ": 7886,
      "FDA ": 7887,
      "fourth-quarter ": 7888,
      "Fal": 7889,
      "Kofi ": 7890,
      "Phelps ": 7891,
      "bra": 7892,
      "could": 7893,
      "van ": 7894,
      "vice ": 7895,
      "ing, the ": 7896,
      "ate, ": 7897,
      "to their ": 7898,
      "ecaus": 7899,
      "us: ": 7900,
      "abuse ": 7901,
      "porter ": 7902,
      "alliance ": 7903,
      "Shell ": 7904,
      "Market": 7905,
      "ATT": 7906,
      "game.": 7907,
      "them.": 7908,
      "eason ": 7909,
      "structure ": 7910,
      "confident ": 7911,
      "Typhoon ": 7912,
      "themselves ": 7913,
      "Hamid Karzai ": 7914,
      "Agassi ": 7915,
      "Bi": 7916,
      "Hon": 7917,
      "Many ": 7918,
      "Satellite ": 7919,
      "revis": 7920,
      "outs ": 7921,
      "in southern ": 7922,
      "chief": 7923,
      "usual ": 7924,
      "haul ": 7925,
      "they": 7926,
      "ongoing ": 7927,
      "finished ": 7928,
      "ickets ": 7929,
      "ritis ": 7930,
      "boys ": 7931,
      "Leh": 7932,
      "extrem": 7933,
      "Carib": 7934,
      "through a ": 7935,
      "Delh": 7936,
      "voice ": 7937,
      "reached a ": 7938,
      "Acqu": 7939,
      "might be ": 7940,
      "unveiled ": 7941,
      "heavy": 7942,
      "Soldi": 7943,
      "climb": 7944,
      "Advanced ": 7945,
      "moment": 7946,
      "Kansas City ": 7947,
      "retirement ": 7948,
      "Rebels ": 7949,
      "vacc": 7950,
      "to his ": 7951,
      "in Baghdad ": 7952,
      "terms ": 7953,
      "age, ": 7954,
      "\\$25": 7955,
      "cru": 7956,
      "Progr": 7957,
      "Head": 7958,
      "effect ": 7959,
      "kidnapped ": 7960,
      "cell phone ": 7961,
      "Wal-Mart Stores ": 7962,
      "NCAA ": 7963,
      "Chrysler ": 7964,
      "Sharapova ": 7965,
      "Hockey ": 7966,
      "So ": 7967,
      "fair": 7968,
      "ky ": 7969,
      "kel": 7970,
      "pick ": 7971,
      ". And ": 7972,
      "aining ": 7973,
      "up with ": 7974,
      "link ": 7975,
      "blue ": 7976,
      "finish": 7977,
      "ance of ": 7978,
      "Seeks ": 7979,
      "South Kore": 7980,
      "students ": 7981,
      "raised its ": 7982,
      "driver ": 7983,
      "human": 7984,
      "Nether": 7985,
      "ability to ": 7986,
      "murder ": 7987,
      "dozen ": 7988,
      "Claims ": 7989,
      "Holdings ": 7990,
      "YDNE": 7991,
      "24-": 7992,
      "75": 7993,
      "Golf ": 7994,
      "less": 7995,
      "ings and ": 7996,
      "ils ": 7997,
      "escop": 7998,
      "eland ": 7999,
      "rok": 8000,
      "ement.": 8001,
      "Int": 8002,
      "deep": 8003,
      "has become ": 8004,
      "soft ": 8005,
      "anniversary ": 8006,
      "actions ": 8007,
      "election.": 8008,
      "eyes ": 8009,
      "whether the ": 8010,
      "drew ": 8011,
      "jump ": 8012,
      "Pacers ": 8013,
      "Raid": 8014,
      "Saudi Arab": 8015,
      "mutual ": 8016,
      "FCC ": 8017,
      "&lt;FONT face=\"verdana,MS Sans Serif,arial,helvetica\" size=\"-2\" color=\"#666666\"&gt;&lt;B&gt;-": 8018,
      "Jakart": 8019,
      "35 ": 8020,
      "A's ": 8021,
      "Crit": 8022,
      "Dail": 8023,
      "Top": 8024,
      "bann": 8025,
      "bell ": 8026,
      "ural ": 8027,
      "users to ": 8028,
      "utions ": 8029,
      "sequ": 8030,
      "he had ": 8031,
      "Alli": 8032,
      "Monday to ": 8033,
      "Contr": 8034,
      "USSE": 8035,
      "comments ": 8036,
      "News: ": 8037,
      "posted ": 8038,
      "Frances ": 8039,
      "possibly ": 8040,
      "news agency ": 8041,
      "Enterprise ": 8042,
      "dramatic ": 8043,
      "renewed ": 8044,
      "Food and ": 8045,
      "UN Security ": 8046,
      "Cincinnati ": 8047,
      "Even ": 8048,
      "Lyn": 8049,
      "NO": 8050,
      "Post ": 8051,
      "aid": 8052,
      "lun": 8053,
      "at.": 8054,
      "to S": 8055,
      "Thai ": 8056,
      "seat ": 8057,
      "from their ": 8058,
      "Anton": 8059,
      "Spain": 8060,
      "elected ": 8061,
      "AMD": 8062,
      "John Kerr": 8063,
      "looked ": 8064,
      "receive ": 8065,
      "reached ": 8066,
      "panel ": 8067,
      "software.": 8068,
      "conditions ": 8069,
      "Treasuries ": 8070,
      "Walt Disney ": 8071,
      "EST": 8072,
      "Gil": 8073,
      "Seven ": 8074,
      "TR": 8075,
      "barg": 8076,
      "card": 8077,
      "iant ": 8078,
      "plead": 8079,
      "emy ": 8080,
      "with two ": 8081,
      "attend": 8082,
      "Andr": 8083,
      "ization ": 8084,
      "second": 8085,
      "(Reuters) Reuters - U.S. ": 8086,
      "cards ": 8087,
      "McLenn": 8088,
      "NASA #39;s ": 8089,
      "this week.": 8090,
      "keeps ": 8091,
      "behind the ": 8092,
      "dropp": 8093,
      "securities ": 8094,
      "Management ": 8095,
      "doubt ": 8096,
      "Thomas ": 8097,
      "technical ": 8098,
      "Fergus": 8099,
      "El ": 8100,
      "fear ": 8101,
      "get": 8102,
      "py ": 8103,
      "uff": 8104,
      "s (": 8105,
      "for-": 8106,
      "conclud": 8107,
      "evacu": 8108,
      "lav": 8109,
      "overall ": 8110,
      "he is ": 8111,
      "Lee ": 8112,
      "Arctic ": 8113,
      "partic": 8114,
      "Els ": 8115,
      "greater ": 8116,
      "world.": 8117,
      "size ": 8118,
      "ruptcy ": 8119,
      "Solaris ": 8120,
      "June ": 8121,
      "Halliburton ": 8122,
      "11-": 8123,
      "Hous": 8124,
      "Hung": 8125,
      "LLE": 8126,
      "Pet": 8127,
      "ban": 8128,
      "ies. ": 8129,
      "tight ": 8130,
      "itz ": 8131,
      "#39;s new ": 8132,
      "opt": 8133,
      "shift ": 8134,
      " post": 8135,
      "deput": 8136,
      "are the ": 8137,
      "than the ": 8138,
      "decade ": 8139,
      "loss to ": 8140,
      "forced to ": 8141,
      "moves ": 8142,
      " people, ": 8143,
      "part of the ": 8144,
      "Milan ": 8145,
      "Abu ": 8146,
      "Internet Explorer ": 8147,
      "situation ": 8148,
      "Lewis ": 8149,
      "BI ": 8150,
      "Center": 8151,
      "Eri": 8152,
      "Fav": 8153,
      "Found ": 8154,
      "II ": 8155,
      "Ve": 8156,
      "ox ": 8157,
      "yad ": 8158,
      "es\\": 8159,
      "unions ": 8160,
      "frustr": 8161,
      "spyware ": 8162,
      "eps ": 8163,
      "libr": 8164,
      "marks ": 8165,
      "New Jer": 8166,
      "ember.": 8167,
      "man who ": 8168,
      "leadership ": 8169,
      "turning ": 8170,
      "It was ": 8171,
      "hit the ": 8172,
      "additional ": 8173,
      "India, ": 8174,
      "nationwide ": 8175,
      "how to ": 8176,
      "Troops ": 8177,
      "radical ": 8178,
      "house": 8179,
      "denied ": 8180,
      "fraud": 8181,
      ".com) washingtonpost": 8182,
      "washingtonpost.com) washingtonpost": 8183,
      "revealed ": 8184,
      "capacity ": 8185,
      "UEFA ": 8186,
      "ymnast": 8187,
      "DR": 8188,
      "Luc": 8189,
      "LIN": 8190,
      "O'": 8191,
      "Ster": 8192,
      "center": 8193,
      "fly ": 8194,
      "hit": 8195,
      "mand": 8196,
      "t. ": 8197,
      "ino": 8198,
      "ors.": 8199,
      "aling ": 8200,
      "ag ": 8201,
      "that have ": 8202,
      "cliff": 8203,
      "scar": 8204,
      "-- A ": 8205,
      "Shop": 8206,
      "es, a ": 8207,
      "cool": 8208,
      "man, ": 8209,
      "Concer": 8210,
      "NEW YORK, ": 8211,
      "tion of ": 8212,
      "game, ": 8213,
      "South African ": 8214,
      "urges ": 8215,
      "Earth": 8216,
      "Co. &lt;A HREF=\"http://www.investor.reuters.com/FullQuote.aspx?ticker=": 8217,
      "death toll ": 8218,
      "platform ": 8219,
      "Hostage ": 8220,
      "refugee ": 8221,
      "crimes ": 8222,
      "76": 8223,
      "Move ": 8224,
      "T-": 8225,
      "WOR": 8226,
      "gen ": 8227,
      "mate ": 8228,
      "tell ": 8229,
      "als to ": 8230,
      "to  ": 8231,
      "- and ": 8232,
      "sud": 8233,
      "gry ": 8234,
      "this month ": 8235,
      "New Or": 8236,
      " Pal": 8237,
      "said, ": 8238,
      "Plc": 8239,
      " percent of ": 8240,
      "interview ": 8241,
      "30-": 8242,
      "price of ": 8243,
      "televis": 8244,
      "torn ": 8245,
      "Bobby ": 8246,
      "Kyoto ": 8247,
      "hill ": 8248,
      "pound": 8249,
      "ed of ": 8250,
      "on Monday.": 8251,
      "ition": 8252,
      "as its ": 8253,
      "at his ": 8254,
      "ers of the ": 8255,
      "Insurg": 8256,
      "are not ": 8257,
      "after it ": 8258,
      "secret": 8259,
      "attled ": 8260,
      "format ": 8261,
      "Sunni ": 8262,
      "coast": 8263,
      "ence.": 8264,
      "Conf": 8265,
      "Electr": 8266,
      "lift": 8267,
      "deleg": 8268,
      "showing ": 8269,
      "South Korean ": 8270,
      "Early ": 8271,
      ". That ": 8272,
      "introduce ": 8273,
      "Packers ": 8274,
      "criticism ": 8275,
      "resolve ": 8276,
      "majority ": 8277,
      "documents ": 8278,
      "under-par ": 8279,
      "Attorney General ": 8280,
      "12-": 8281,
      "Pass": 8282,
      "book ": 8283,
      "yl": 8284,
      "a  ": 8285,
      "earn ": 8286,
      "ents.": 8287,
      "Stock": 8288,
      "track": 8289,
      "spar": 8290,
      "surround": 8291,
      "aster": 8292,
      "expand ": 8293,
      "three years ": 8294,
      "Pro ": 8295,
      "Blog": 8296,
      "auto ": 8297,
      "suspects ": 8298,
      "that it will ": 8299,
      "settl": 8300,
      "Schum": 8301,
      "one of the most ": 8302,
      "Edwards ": 8303,
      "rest of the ": 8304,
      "Leads ": 8305,
      "Jan. ": 8306,
      "winning the ": 8307,
      "micro": 8308,
      "16-": 8309,
      "Cell ": 8310,
      "I, ": 8311,
      "Loc": 8312,
      "books ": 8313,
      "foot ": 8314,
      "s as ": 8315,
      "ors, ": 8316,
      "ary.": 8317,
      "in T": 8318,
      "es with ": 8319,
      "chann": 8320,
      "ad.": 8321,
      " part": 8322,
      "ate of ": 8323,
      "this year.": 8324,
      "slugg": 8325,
      " percent.": 8326,
      "a big ": 8327,
      "top of the ": 8328,
      "loss of ": 8329,
      "technology.": 8330,
      "including the ": 8331,
      "McN": 8332,
      "(AFP) AFP - The ": 8333,
      "WASHINGTON -- ": 8334,
      "this week, ": 8335,
      "Holi": 8336,
      "known as ": 8337,
      "trouble ": 8338,
      "cuit ": 8339,
      "Strong ": 8340,
      "Standard ": 8341,
      "Organization ": 8342,
      "Stadium.": 8343,
      "Martinez ": 8344,
      "ATHENS, Greece ": 8345,
      "Maures": 8346,
      "36": 8347,
      "Kenn": 8348,
      "Nets ": 8349,
      "Rat": 8350,
      "Six ": 8351,
      "eu": 8352,
      "ge": 8353,
      "ris ": 8354,
      "y. The ": 8355,
      "inquiry ": 8356,
      "oning ": 8357,
      "or's ": 8358,
      "icious ": 8359,
      "in 19": 8360,
      "rescue ": 8361,
      "attention ": 8362,
      "ight-": 8363,
      "AN ": 8364,
      "rivate ": 8365,
      "Ali ": 8366,
      "Exper": 8367,
      "President George W. Bush ": 8368,
      "said on Monday ": 8369,
      "oil produc": 8370,
      "giants ": 8371,
      "doing ": 8372,
      "opener ": 8373,
      "make it ": 8374,
      "against the euro ": 8375,
      "promot": 8376,
      "speech ": 8377,
      "currency ": 8378,
      "archit": 8379,
      "Dow Jones)--": 8380,
      "A.": 8381,
      "Bud": 8382,
      "Det": 8383,
      "Doc": 8384,
      "Good ": 8385,
      "Jos": 8386,
      "ales ": 8387,
      "ed off ": 8388,
      "to end ": 8389,
      "sust": 8390,
      "recru": 8391,
      "US and ": 8392,
      "outsourc": 8393,
      "means ": 8394,
      "brand": 8395,
      "published ": 8396,
      "Appe": 8397,
      "Dead": 8398,
      "Deut": 8399,
      "headquarter": 8400,
      "that it would ": 8401,
      "Titan ": 8402,
      "DoCo": 8403,
      "doesn't ": 8404,
      "welcom": 8405,
      "immediately ": 8406,
      "Argentina ": 8407,
      "self-": 8408,
      "Myanmar ": 8409,
      "4 million ": 8410,
      "Cos": 8411,
      "Call ": 8412,
      "Diam": 8413,
      "Eli": 8414,
      "Gart": 8415,
      "Lik": 8416,
      "Osam": 8417,
      "Ut": 8418,
      "men's ": 8419,
      "pret": 8420,
      "an\\": 8421,
      "the same ": 8422,
      "o B": 8423,
      "ic.": 8424,
      "white ": 8425,
      "depl": 8426,
      "Iraq.": 8427,
      "-- and ": 8428,
      "Anth": 8429,
      "eback": 8430,
      "Quest": 8431,
      "worker ": 8432,
      "Flight ": 8433,
      "icker) -- ": 8434,
      "take a ": 8435,
      " points, ": 8436,
      "popular": 8437,
      "Bush, ": 8438,
      "Scott ": 8439,
      "Kaza": 8440,
      "Tehran ": 8441,
      "didn't ": 8442,
      "7 billion ": 8443,
      "Cir": 8444,
      "Canc": 8445,
      "Squ": 8446,
      "Vot": 8447,
      "ean ": 8448,
      "nothing ": 8449,
      "qtada ": 8450,
      "ary-": 8451,
      "enko ": 8452,
      ".  ": 8453,
      "Strip": 8454,
      "said they ": 8455,
      "after he ": 8456,
      "line.": 8457,
      "ipeline ": 8458,
      "ounces ": 8459,
      "Oracle Corp. ": 8460,
      "Buff": 8461,
      "supercomputer ": 8462,
      "Council": 8463,
      "Chave": 8464,
      "purchase ": 8465,
      "United States.": 8466,
      "withdrawal ": 8467,
      "Jackson ": 8468,
      " p.m.": 8469,
      "property ": 8470,
      "Campa": 8471,
      "Tampa Bay ": 8472,
      "yad Alla": 8473,
      "Hand": 8474,
      "Sign ": 8475,
      "pitch ": 8476,
      "to win the ": 8477,
      "agon ": 8478,
      "#39;re ": 8479,
      "ple of ": 8480,
      "#39;s first ": 8481,
      "&lt;br": 8482,
      "offset ": 8483,
      "heat ": 8484,
      "Unveil": 8485,
      "mond ": 8486,
      "end to ": 8487,
      "Approv": 8488,
      "postpon": 8489,
      "handed ": 8490,
      "Serena ": 8491,
      "Heat ": 8492,
      "director": 8493,
      "heard ": 8494,
      "Edge ": 8495,
      "third-quarter earnings ": 8496,
      "Afghanistan": 8497,
      "Cuba ": 8498,
      "leaves ": 8499,
      "Search Engine ": 8500,
      "Cisco Systems ": 8501,
      "Henman ": 8502,
      "choice ": 8503,
      "Matt ": 8504,
      "focus on ": 8505,
      "Denver ": 8506,
      "Steelers ": 8507,
      "Embass": 8508,
      "\"\\ ": 8509,
      "Lind": 8510,
      "Marg": 8511,
      "Sn": 8512,
      "patch ": 8513,
      "xim": 8514,
      "comeback ": 8515,
      "shut": 8516,
      " pre": 8517,
      "sumer": 8518,
      "compens": 8519,
      "from an ": 8520,
      "ance.": 8521,
      "perfect ": 8522,
      "Forces ": 8523,
      "USTON": 8524,
      "ed on a ": 8525,
      "particip": 8526,
      "Inc., the ": 8527,
      "Web sit": 8528,
      "child ": 8529,
      "Raises ": 8530,
      "connect": 8531,
      "astronaut": 8532,
      "young": 8533,
      "soaring ": 8534,
      "&lt;FONT face=\"verdana,MS Sans Serif,arial,helvetica\" size=\"-2\"\\ ": 8535,
      "New Orle": 8536,
      "Domin": 8537,
      "Fight ": 8538,
      "Krem": 8539,
      "Loss ": 8540,
      "MAR": 8541,
      "Peter ": 8542,
      "cents ": 8543,
      "o: ": 8544,
      "tiny ": 8545,
      "refl": 8546,
      "age.": 8547,
      "Than ": 8548,
      ") is ": 8549,
      "line of ": 8550,
      "ing to a ": 8551,
      "ance, ": 8552,
      "downs ": 8553,
      "warming ": 8554,
      "economy.": 8555,
      "explo": 8556,
      "landmark ": 8557,
      "French": 8558,
      "where the ": 8559,
      "allowed ": 8560,
      "account ": 8561,
      "struggle ": 8562,
      "instant ": 8563,
      "because of a ": 8564,
      "Hollinger ": 8565,
      "approach": 8566,
      "based on ": 8567,
      "strikes ": 8568,
      "discuss ": 8569,
      "Public ": 8570,
      "cannot ": 8571,
      "3r": 8572,
      "GD": 8573,
      "Ken ": 8574,
      "Len": 8575,
      "Tax ": 8576,
      "ahaw": 8577,
      "by": 8578,
      "e\" ": 8579,
      "mixed ": 8580,
      "aret ": 8581,
      "atomic ": 8582,
      "and an ": 8583,
      "rier ": 8584,
      "iment ": 8585,
      "imple": 8586,
      "ed, the ": 8587,
      "ents, ": 8588,
      "that his ": 8589,
      "The U.S. ": 8590,
      "he has ": 8591,
      "Busch ": 8592,
      "Block": 8593,
      "15-": 8594,
      "developer ": 8595,
      "son, ": 8596,
      "agreement with ": 8597,
      "ride ": 8598,
      "apparent ": 8599,
      "BlackB": 8600,
      "Blue J": 8601,
      "prosecutors ": 8602,
      "Colin Powell ": 8603,
      "OTTAW": 8604,
      "#14": 8605,
      "Glaz": 8606,
      "Long ": 8607,
      "NA": 8608,
      "Ob": 8609,
      "Past ": 8610,
      "Ti": 8611,
      "wood ": 8612,
      "ensure ": 8613,
      "replace ": 8614,
      "cha": 8615,
      "shock ": 8616,
      "cond": 8617,
      "phere ": 8618,
      "in a bid to ": 8619,
      "flying ": 8620,
      "mind ": 8621,
      "regard": 8622,
      "newly ": 8623,
      "next month ": 8624,
      "calls for ": 8625,
      "lead to ": 8626,
      "includes ": 8627,
      "featur": 8628,
      "Manmo": 8629,
      "took a ": 8630,
      "successfully ": 8631,
      "acquisition ": 8632,
      "Electronic ": 8633,
      "vendor ": 8634,
      "Britain's ": 8635,
      "opportunity ": 8636,
      "Vietnam ": 8637,
      "CHICAG": 8638,
      "Jack ": 8639,
      "OG": 8640,
      "gear": 8641,
      "k.": 8642,
      "knew ": 8643,
      "ty to ": 8644,
      "intr": 8645,
      "the second ": 8646,
      "quest ": 8647,
      "resour": 8648,
      " ph": 8649,
      "secret ": 8650,
      "boy ": 8651,
      "announces ": 8652,
      "President Bush's ": 8653,
      "software giant ": 8654,
      "aims to ": 8655,
      "record high": 8656,
      "files ": 8657,
      "move to ": 8658,
      "OSTON": 8659,
      "rejects ": 8660,
      "long-term ": 8661,
      "improved ": 8662,
      "Gold Fiel": 8663,
      "Alex": 8664,
      "were killed and ": 8665,
      "wave of ": 8666,
      "Deutsche ": 8667,
      ".P": 8668,
      "Petro": 8669,
      "cott ": 8670,
      "eed ": 8671,
      "feld ": 8672,
      "fought ": 8673,
      "s from ": 8674,
      "ine, ": 8675,
      ", 2004 ": 8676,
      "ured ": 8677,
      "ley.": 8678,
      "plot ": 8679,
      "worm ": 8680,
      "spread ": 8681,
      "out for ": 8682,
      "disease ": 8683,
      "Spam ": 8684,
      "count": 8685,
      "highly ": 8686,
      "guerr": 8687,
      "Offers ": 8688,
      "McC": 8689,
      "compete ": 8690,
      "took the ": 8691,
      "Amid ": 8692,
      "PC World) ": 8693,
      "semiconductor ": 8694,
      "a-Col": 8695,
      "version of the ": 8696,
      "combin": 8697,
      "Rockets ": 8698,
      "strength": 8699,
      "Human ": 8700,
      "narrow": 8701,
      "ORTS ": 8702,
      "LINE": 8703,
      "Economy ": 8704,
      "TORONTO (CP) - ": 8705,
      "PC World) PC ": 8706,
      "Ah": 8707,
      "Sor": 8708,
      "fellow ": 8709,
      "pical ": 8710,
      "s'": 8711,
      "enab": 8712,
      "alist ": 8713,
      "amount ": 8714,
      "etts ": 8715,
      "eme ": 8716,
      "utton ": 8717,
      "beats ": 8718,
      "AP ": 8719,
      "peac": 8720,
      "quot;.": 8721,
      "eball": 8722,
      "Thursday to ": 8723,
      "Friday to ": 8724,
      "game against ": 8725,
      "Head ": 8726,
      "testing ": 8727,
      "putting ": 8728,
      "detain": 8729,
      "infra": 8730,
      "received a ": 8731,
      "hard-": 8732,
      "broadcast ": 8733,
      "priority ": 8734,
      "steps ": 8735,
      "afterno": 8736,
      "responsible ": 8737,
      "preced": 8738,
      "in Laden ": 8739,
      "Coca-Col": 8740,
      " : ": 8741,
      "(NewsFactor) NewsFactor - ": 8742,
      "Feb": 8743,
      "Tay": 8744,
      "catch ": 8745,
      "dic": 8746,
      "hurricane ": 8747,
      "lig": 8748,
      "lock ": 8749,
      "mal ": 8750,
      "marg": 8751,
      "sweep ": 8752,
      "icals ": 8753,
      "iled ": 8754,
      "iling ": 8755,
      "as.": 8756,
      "as  ": 8757,
      "invas": 8758,
      "tries to ": 8759,
      "next year": 8760,
      "largely ": 8761,
      "erger ": 8762,
      "People ": 8763,
      "injuring ": 8764,
      "Group Inc. ": 8765,
      "Guine": 8766,
      "experienc": 8767,
      "net profit ": 8768,
      "Keep ": 8769,
      "TOKYO": 8770,
      "MP3 ": 8771,
      "cancer ": 8772,
      "Contin": 8773,
      "newspap": 8774,
      "troops in ": 8775,
      "Siem": 8776,
      "Miller ": 8777,
      "democracy ": 8778,
      "Pistons ": 8779,
      "uranium enrichment ": 8780,
      "Massachusetts ": 8781,
      "DoCoM": 8782,
      "&lt;FONT face=\"verdana,MS Sans Serif,arial,helvetica\" size=\"-2\"\\ color=\"#666666\"&gt;&lt;B&gt;-": 8783,
      "2n": 8784,
      "SH": 8785,
      "Vill": 8786,
      "eon ": 8787,
      "een ": 8788,
      "fash": 8789,
      "ipl": 8790,
      "s at ": 8791,
      "one.": 8792,
      "fortun": 8793,
      "Thatch": 8794,
      "Che": 8795,
      "people": 8796,
      "grant": 8797,
      "lie ": 8798,
      "flash ": 8799,
      "minut": 8800,
      "NEW": 8801,
      "Work ": 8802,
      "interim": 8803,
      "intens": 8804,
      "Canada #39;s ": 8805,
      "idea ": 8806,
      "puts ": 8807,
      "concern": 8808,
      "THE": 8809,
      "planning to ": 8810,
      "Air Force ": 8811,
      "Congo ": 8812,
      "burn ": 8813,
      "human rights ": 8814,
      "Kashmir": 8815,
      "wrong ": 8816,
      "smaller ": 8817,
      "friendly ": 8818,
      "pledg": 8819,
      "Jordan ": 8820,
      "Indianapolis ": 8821,
      "Andre ": 8822,
      "Manmohan ": 8823,
      ".C. ": 8824,
      "Raf": 8825,
      "either ": 8826,
      "fli": 8827,
      "lv": 8828,
      "power": 8829,
      "iness": 8830,
      "innings ": 8831,
      "ings to ": 8832,
      "ing  ": 8833,
      "adding ": 8834,
      "Thr": 8835,
      "Theft ": 8836,
      "produce ": 8837,
      "trigg": 8838,
      "last-": 8839,
      "scale ": 8840,
      "es.com": 8841,
      "coast ": 8842,
      "Qual": 8843,
      "Orland": 8844,
      "interview": 8845,
      "Season ": 8846,
      "Seahaw": 8847,
      "charges of ": 8848,
      "Airlin": 8849,
      "20-": 8850,
      "Apple #39;s ": 8851,
      "Harmon": 8852,
      "retailer, ": 8853,
      "grab": 8854,
      "camera ": 8855,
      "nowled": 8856,
      "crude oil ": 8857,
      "estimates ": 8858,
      "hunt ": 8859,
      "Insurance ": 8860,
      "sponsor": 8861,
      "Alitalia ": 8862,
      "PC World) PC World - ": 8863,
      "(R": 8864,
      "Astr": 8865,
      "Cz": 8866,
      "Eas": 8867,
      "Main": 8868,
      "hear ": 8869,
      "ki ": 8870,
      "lov": 8871,
      "isn #39;t ": 8872,
      "resolv": 8873,
      "shock": 8874,
      "obacc": 8875,
      "overtime ": 8876,
      "New Delh": 8877,
      "overnight ": 8878,
      "relation": 8879,
      "Microsoft has ": 8880,
      "counting ": 8881,
      "aire ": 8882,
      "NEW DEL": 8883,
      "next year, ": 8884,
      "Health": 8885,
      "online music ": 8886,
      "reason": 8887,
      "model ": 8888,
      "allowing ": 8889,
      "wounded ": 8890,
      "organization ": 8891,
      "murd": 8892,
      "Syria ": 8893,
      "as well as ": 8894,
      "Jeanne ": 8895,
      "Pervez Musharraf ": 8896,
      "Auss": 8897,
      "Hamil": 8898,
      "Nap": 8899,
      "PL": 8900,
      "Viv": 8901,
      "ceas": 8902,
      "nic ": 8903,
      "wear": 8904,
      "erage ": 8905,
      "thro": 8906,
      "it. ": 8907,
      "consumer": 8908,
      "said today ": 8909,
      "spur": 8910,
      "&lt;strong&gt;": 8911,
      "ending a ": 8912,
      "Unit ": 8913,
      " Sp": 8914,
      "  quot;": 8915,
      "mone": 8916,
      "&lt;/strong&gt;": 8917,
      "Wednesday to ": 8918,
      "back in ": 8919,
      "of a new ": 8920,
      "sales and ": 8921,
      "government and ": 8922,
      "capable ": 8923,
      "begun ": 8924,
      "homer ": 8925,
      "years ago ": 8926,
      "India's ": 8927,
      "there was ": 8928,
      "currenc": 8929,
      "collect": 8930,
      "Congres": 8931,
      "Attacks ": 8932,
      "history.": 8933,
      "returned to ": 8934,
      "United States, ": 8935,
      "girl ": 8936,
      "neighbor": 8937,
      "Sri Lanka ": 8938,
      "arthritis ": 8939,
      "Columbia ": 8940,
      "Bor": 8941,
      "Fen": 8942,
      "Veg": 8943,
      "Wiz": 8944,
      "braw": 8945,
      "nit": 8946,
      "too": 8947,
      "insp": 8948,
      "a week ": 8949,
      "ouse ": 8950,
      "ers were ": 8951,
      "ot of ": 8952,
      "one of its ": 8953,
      "Sunday's ": 8954,
      "parliam": 8955,
      "rison": 8956,
      "veil ": 8957,
      "iege ": 8958,
      "solution ": 8959,
      "communications ": 8960,
      "today announced ": 8961,
      "post-": 8962,
      "North Kore": 8963,
      "place in the ": 8964,
      "PlayStation ": 8965,
      "decided ": 8966,
      "screen": 8967,
      "a barrel": 8968,
      "package ": 8969,
      "abilities ": 8970,
      "number one ": 8971,
      "dangerous ": 8972,
      "football": 8973,
      "girl": 8974,
      "Kobe Bryant ": 8975,
      "INGAPORE": 8976,
      "(washingtonpost.com) washingtonpost": 8977,
      "23 ": 8978,
      "Dom": 8979,
      "Eis": 8980,
      "Nearly ": 8981,
      "bad": 8982,
      "ge of ": 8983,
      "in.": 8984,
      "to go ": 8985,
      "in New York ": 8986,
      "entary ": 8987,
      "entative ": 8988,
      "resist": 8989,
      "project": 8990,
      "s, which ": 8991,
      "s, including ": 8992,
      "Chase ": 8993,
      "Alber": 8994,
      "Ask ": 8995,
      "President H": 8996,
      "election, ": 8997,
      "prepare ": 8998,
      "turns ": 8999,
      "hoping to ": 9000,
      "steady ": 9001,
      "there is ": 9002,
      "failure ": 9003,
      "collabor": 9004,
      "Browns ": 9005,
      "Field ": 9006,
      "VIEN": 9007,
      "figure ": 9008,
      "disputed ": 9009,
      "seven-": 9010,
      "expressed ": 9011,
      "database ": 9012,
      "inaug": 9013,
      "-off ": 9014,
      "2 percent ": 9015,
      "As the ": 9016,
      "BER": 9017,
      "Battle ": 9018,
      "Card ": 9019,
      "DS": 9020,
      "Gas ": 9021,
      "Key ": 9022,
      "LAM": 9023,
      "Sir": 9024,
      "Wants ": 9025,
      "cos": 9026,
      "eat ": 9027,
      "hang": 9028,
      "iou": 9029,
      "led the ": 9030,
      "s; ": 9031,
      "wall ": 9032,
      "would": 9033,
      "erce ": 9034,
      "y #39;s ": 9035,
      "ing of the ": 9036,
      "ate.": 9037,
      "portable ": 9038,
      "out.": 9039,
      "way for ": 9040,
      "go-": 9041,
      "extension ": 9042,
      "Baghdad, ": 9043,
      "passenger ": 9044,
      "placed ": 9045,
      "Abbe": 9046,
      "Retail": 9047,
      "Devices ": 9048,
      "Explos": 9049,
      " (Sports Network) - The ": 9050,
      "squad ": 9051,
      "brief": 9052,
      "Major League Baseball ": 9053,
      "Motorola ": 9054,
      "Rums": 9055,
      "Caribbean ": 9056,
      "Food and Drug ": 9057,
      "AC ": 9058,
      "Gib": 9059,
      "gold": 9060,
      "hood ": 9061,
      "lay ": 9062,
      "lds ": 9063,
      "preliminary ": 9064,
      "ri ": 9065,
      "plung": 9066,
      " (Dow Jones)--": 9067,
      "embly ": 9068,
      "underg": 9069,
      "Forest ": 9070,
      "runn": 9071,
      "present ": 9072,
      " By ": 9073,
      "deliver": 9074,
      "closely ": 9075,
      "Saturday #39;s ": 9076,
      "explor": 9077,
      "industry.": 9078,
      "switch": 9079,
      "competitive ": 9080,
      "lows ": 9081,
      "market, ": 9082,
      "Indians ": 9083,
      "Firm ": 9084,
      "Retail ": 9085,
      "services.": 9086,
      "instit": 9087,
      "World Cup qualif": 9088,
      "Title ": 9089,
      "Championship Series ": 9090,
      "right-": 9091,
      "software, ": 9092,
      "referend": 9093,
      "Mariners ": 9094,
      "heavyweight ": 9095,
      "Ferguson ": 9096,
      " Palestin": 9097,
      "'s\\": 9098,
      "(Quote, Chart": 9099,
      "65": 9100,
      "BAL": 9101,
      "Gard": 9102,
      "Mit": 9103,
      "Mah": 9104,
      "Pict": 9105,
      "Sev": 9106,
      "Sav": 9107,
      "hockey ": 9108,
      "smart ": 9109,
      "oral ": 9110,
      "arily ": 9111,
      "to play ": 9112,
      "entry ": 9113,
      "conver": 9114,
      "contribut": 9115,
      "Although ": 9116,
      "Microsoft to ": 9117,
      "announced on ": 9118,
      "award ": 9119,
      "Close ": 9120,
      "facilit": 9121,
      "September, ": 9122,
      "investigating ": 9123,
      "Island ": 9124,
      "street ": 9125,
      "EMBER ": 9126,
      "half-": 9127,
      "connection ": 9128,
      "wrong": 9129,
      "Killed in ": 9130,
      "Celtic ": 9131,
      "bottom ": 9132,
      "Unveils ": 9133,
      "Clos": 9134,
      "DE": 9135,
      "Far": 9136,
[...]
